{
  "version": "1.0",
  "truncation": null,
  "padding": null,
  "added_tokens": [
    {
      "id": 0,
      "content": "<s>",
      "single_word": false,
      "lstrip": false,
      "rstrip": false,
      "normalized": true,
      "special": true
    },
    {
      "id": 1,
      "content": "<pad>",
      "single_word": false,
      "lstrip": false,
      "rstrip": false,
      "normalized": true,
      "special": true
    },
    {
      "id": 2,
      "content": "</s>",
      "single_word": false,
      "lstrip": false,
      "rstrip": false,
      "normalized": true,
      "special": true
    },
    {
      "id": 3,
      "content": "<unk>",
      "single_word": false,
      "lstrip": false,
      "rstrip": false,
      "normalized": true,
      "special": true
    },
    {
      "id": 50263,
      "content": "<mask>",
      "single_word": false,
      "lstrip": true,
      "rstrip": false,
      "normalized": true,
      "special": true
    }
  ],
  "normalizer": null,
  "pre_tokenizer": {
    "type": "ByteLevel",
    "add_prefix_space": true,
    "trim_offsets": true,
    "use_regex": true
  },
  "post_processor": {
    "type": "RobertaProcessing",
    "sep": [
      "</s>",
      2
    ],
    "cls": [
      "<s>",
      0
    ],
    "trim_offsets": true,
    "add_prefix_space": true
  },
  "decoder": {
    "type": "ByteLevel",
    "add_prefix_space": true,
    "trim_offsets": true,
    "use_regex": true
  },
  "model": {
    "type": "BPE",
    "dropout": null,
    "unk_token": null,
    "continuing_subword_prefix": "",
    "end_of_word_suffix": "",
    "fuse_unk": false,
    "byte_fallback": false,
    "ignore_merges": false,
    "vocab": {
      "<s>": 0,
      "<pad>": 1,
      "</s>": 2,
      "<unk>": 3,
      ",": 4,
      ".": 5,
      "Ġa": 6,
      "Ġna": 7,
      "Ġv": 8,
      "Ġsa": 9,
      "Ġje": 10,
      "Ġto": 11,
      "Ġs": 12,
      "ĠÅ¾e": 13,
      "Ġsi": 14,
      "Ġz": 15,
      "Ġaj": 16,
      "Ġo": 17,
      "Ġdo": 18,
      "Ġako": 19,
      "Ġsom": 20,
      "Ġby": 21,
      "?": 22,
      "Ġza": 23,
      "Ġpre": 24,
      "Ġtak": 25,
      "Ġale": 26,
      "-": 27,
      "Ġpo": 28,
      "Ġod": 29,
      "Ġk": 30,
      "ĠsÃº": 31,
      "V": 32,
      "Ġalebo": 33,
      "ĠuÅ¾": 34,
      "ĠÄįo": 35,
      "Ġlen": 36,
      "Ġnie": 37,
      "Ġpri": 38,
      "ĠktorÃ©": 39,
      "!": 40,
      "Ġaby": 41,
      "Ġsme": 42,
      "Ġich": 43,
      "Ġ.": 44,
      "Ġvo": 45,
      "A": 46,
      "ĠktorÃ½": 47,
      "Ġbude": 48,
      "Ġmi": 49,
      "Ġze": 50,
      "te": 51,
      "ne": 52,
      "ka": 53,
      "Ġho": 54,
      "ĠmÃ¡": 55,
      "s": 56,
      "ĠkeÄı": 57,
      "Ġtu": 58,
      "Ġjeho": 59,
      "Ġso": 60,
      "ĠÄįi": 61,
      "Ġma": 62,
      "mi": 63,
      "Ġse": 64,
      "Ġani": 65,
      "Ġbol": 66,
      "Ġpred": 67,
      "om": 68,
      "Ġco": 69,
      "Ġtam": 70,
      "a": 71,
      "ĠvÅ¡ak": 72,
      "nÃ©": 73,
      "Ġtom": 74,
      "Ġu": 75,
      "Ġroku": 76,
      "Ġzo": 77,
      "la": 78,
      "Na": 79,
      "nÃ½": 80,
      "ky": 81,
      "ĠpodÄ¾a": 82,
      "Ġi": 83,
      "Ġ,": 84,
      "Ġviac": 85,
      "na": 86,
      "me": 87,
      "u": 88,
      "Ġthe": 89,
      "ku": 90,
      "ĠbyÅ¥": 91,
      "Ġste": 92,
      "Ġak": 93,
      "ĠaÅ¾": 94,
      "ĠktorÃ¡": 95,
      "nÃ¡": 96,
      "Ġkde": 97,
      "Ġtoho": 98,
      "Ġbolo": 99,
      "z": 100,
      "t": 101,
      "Ġjej": 102,
      "li": 103,
      "ci": 104,
      "m": 105,
      "ĠeÅ¡te": 106,
      "Ġ1": 107,
      "Ġpod": 108,
      "ta": 109,
      "Ġbez": 110,
      "Ġja": 111,
      "S": 112,
      "ĠA": 113,
      "ĠveÄ¾mi": 114,
      "ĠD": 115,
      "nej": 116,
      "lo": 117,
      "y": 118,
      "Ġ2": 119,
      "Ġmu": 120,
      "Ġvy": 121,
      "Å¡": 122,
      "Je": 123,
      "Ġbola": 124,
      "le": 125,
      "i": 126,
      "Ġten": 127,
      "k": 128,
      "ce": 129,
      "ĠS": 130,
      "To": 131,
      "to": 132,
      "ch": 133,
      "c": 134,
      "ny": 135,
      "ra": 136,
      "ov": 137,
      "Ġno": 138,
      "Ġboli": 139,
      "Ak": 140,
      "ĠmÃ´Å¾e": 141,
      "Ġne": 142,
      "o": 143,
      "Ġasi": 144,
      "ĠnÃ¡s": 145,
      "Ġmedzi": 146,
      "p": 147,
      "ty": 148,
      "Ġju": 149,
      "Ġ3": 150,
      "ni": 151,
      "Ġmal": 152,
      "ovÃ¡": 153,
      "uje": 154,
      "Z": 155,
      "Ġin": 156,
      "Po": 157,
      "l": 158,
      "ĠV": 159,
      "ĠktorÃŃ": 160,
      "nom": 161,
      "Ġpotom": 162,
      "nÃ½ch": 163,
      "ia": 164,
      "ca": 165,
      "ĠÄ¾udÃŃ": 166,
      "Ġrokov": 167,
      "nÃ©ho": 168,
      "Ġproti": 169,
      "re": 170,
      "ĠtÃ½m": 171,
      "nÃŃ": 172,
      "ko": 173,
      "O": 174,
      "Ġtomu": 175,
      "nÃº": 176,
      "va": 177,
      "Ġdnes": 178,
      "e": 179,
      "ovaÅ¥": 180,
      "Ġuz": 181,
      "D": 182,
      "ÃŃ": 183,
      "ti": 184,
      "nou": 185,
      "ĠI": 186,
      "Ġim": 187,
      "Ġiba": 188,
      "ke": 189,
      "v": 190,
      "nu": 191,
      "K": 192,
      "al": 193,
      "tu": 194,
      "ĠtieÅ¾": 195,
      "2": 196,
      "Ġmali": 197,
      "de": 198,
      "r": 199,
      "Ġof": 200,
      "d": 201,
      "ĠmajÃº": 202,
      "Ġti": 203,
      "Ġand": 204,
      "h": 205,
      "ĠvÃ¡m": 206,
      "Ġ4": 207,
      "Ġnad": 208,
      "in": 209,
      "Ġtento": 210,
      "b": 211,
      "ĠK": 212,
      "ho": 213,
      "il": 214,
      "skej": 215,
      "Ale": 216,
      "st": 217,
      "mu": 218,
      "no": 219,
      "g": 220,
      "nÃ½m": 221,
      "Ġpreto": 222,
      "Ġtoto": 223,
      "ĠnÃ¡m": 224,
      "ĠP": 225,
      "Ġty": 226,
      "Ġteraz": 227,
      "Ġsu": 228,
      "Ġ5": 229,
      "Ġlebo": 230,
      "en": 231,
      "Ġsvoje": 232,
      "ĠC": 233,
      "Äį": 234,
      "f": 235,
      "Ġ10": 236,
      "Ġtejto": 237,
      "ri": 238,
      "ĠZ": 239,
      "ĠbudÃº": 240,
      "ovali": 241,
      "Ġteda": 242,
      "n": 243,
      "ĠnieÄįo": 244,
      "Ġked": 245,
      "ly": 246,
      "ĠB": 247,
      "ovÃ©": 248,
      "ze": 249,
      "j": 250,
      "ĠvÅ¡etko": 251,
      "ou": 252,
      "1": 253,
      "si": 254,
      "Ġnich": 255,
      "Ã¡": 256,
      "Ġtie": 257,
      "ĠM": 258,
      "3": 259,
      "Ġjeden": 260,
      "ing": 261,
      "Ġcez": 262,
      "x": 263,
      "ĠE": 264,
      "ĠprÃŃpade": 265,
      "5": 266,
      "ĠO": 267,
      "ĠT": 268,
      "kov": 269,
      "ro": 270,
      "lu": 271,
      "I": 272,
      "Ġrok": 273,
      "ĠmaÅ¥": 274,
      "kom": 275,
      "P": 276,
      "Ġdobre": 277,
      "je": 278,
      "ovej": 279,
      "U": 280,
      "B": 281,
      "enie": 282,
      "ĠvÃ¡s": 283,
      "Ġide": 284,
      "da": 285,
      "cia": 286,
      "enÃ©": 287,
      "Ġ?": 288,
      "sky": 289,
      "za": 290,
      "ovi": 291,
      "Ġ20": 292,
      "Ãº": 293,
      "ma": 294,
      "Ġon": 295,
      "ĠniÄį": 296,
      "Ġde": 297,
      "Ako": 298,
      "sa": 299,
      "Ġdie": 300,
      "Ġroz": 301,
      "skÃ½": 302,
      "ĠpoÄįas": 303,
      "oval": 304,
      "ska": 305,
      "ĠvÅ¡etky": 306,
      "Ġe": 307,
      "kou": 308,
      "ale": 309,
      "Ġkto": 310,
      "ĠH": 311,
      "Ġpovedal": 312,
      "ĠstÃ¡le": 313,
      "se": 314,
      "M": 315,
      "Ġtomto": 316,
      "ĠmÃ´Å¾ete": 317,
      "C": 318,
      "enÃ½": 319,
      "Å¾": 320,
      "Ġmy": 321,
      "Pre": 322,
      "ĠSlovensku": 323,
      "Ã©": 324,
      "skÃ¡": 325,
      "ĠG": 326,
      "Ġniekto": 327,
      "4": 328,
      "an": 329,
      "Pri": 330,
      "ĠvÅ¡etkÃ½ch": 331,
      "Ġtohto": 332,
      "ĠSR": 333,
      "sk": 334,
      "T": 335,
      "ba": 336,
      "ĠpretoÅ¾e": 337,
      "Ġta": 338,
      "Ġtreba": 339,
      "Ġmala": 340,
      "di": 341,
      "ova": 342,
      "ie": 343,
      "ĠF": 344,
      "ĠÄ¾udia": 345,
      "Ã½": 346,
      "Ġis": 347,
      "ve": 348,
      "ĠktorÃ½ch": 349,
      "Ġ!": 350,
      "ĠR": 351,
      "Ġ6": 352,
      "ovala": 353,
      "ovat": 354,
      "skÃ©": 355,
      "Ġnej": 356,
      "ru": 357,
      "Å¾e": 358,
      "ja": 359,
      "cie": 360,
      "at": 361,
      "skom": 362,
      "ĠmÃ´Å¾u": 363,
      "ĠdeÅĪ": 364,
      "Ġci": 365,
      "ovanie": 366,
      "Za": 367,
      "H": 368,
      "Tak": 369,
      "ovÃ½": 370,
      "Ġveci": 371,
      "ĠnaprÃŃklad": 372,
      "Ġku": 373,
      "be": 374,
      "ĠmoÅ¾no": 375,
      "ĠktorÃº": 376,
      "ĠvÅ¾dy": 377,
      "E": 378,
      "po": 379,
      "ĠÄįas": 380,
      "Ġktorej": 381,
      "PodÄ¾a": 382,
      "ĠprÃ¡ve": 383,
      "Ġsvoj": 384,
      "Ġdeti": 385,
      "L": 386,
      "Ġ15": 387,
      "Ġpro": 388,
      "Å¥": 389,
      "ĠN": 390,
      "com": 391,
      "ĠspoloÄįnosti": 392,
      "Ġspolu": 393,
      "ĠkaÅ¾dÃ½": 394,
      "No": 395,
      "Ġre": 396,
      "ry": 397,
      "ĠveÄ¾a": 398,
      "Ġsvoju": 399,
      "Ġstrany": 400,
      "vo": 401,
      "jÃº": 402,
      "ĠTASR": 403,
      "ha": 404,
      "G": 405,
      "enÃ¡": 406,
      "ujÃº": 407,
      "zi": 408,
      "F": 409,
      "Ġbe": 410,
      "Ġ18": 411,
      "KeÄı": 412,
      "Ġm": 413,
      "Ġ30": 414,
      "ĠL": 415,
      "Ġtri": 416,
      "Ġchce": 417,
      "tov": 418,
      "ĠmÃ¡m": 419,
      "Ġnikdy": 420,
      "Ġjak": 421,
      "ovÃ½ch": 422,
      "enÃŃ": 423,
      "ak": 424,
      "skÃ©ho": 425,
      "lÃ¡": 426,
      "ĠnajmÃ¤": 427,
      "du": 428,
      "Ġ7": 429,
      "Ġ8": 430,
      "Å¡ÃŃ": 431,
      "ĠmÅĪa": 432,
      "ÃŃm": 433,
      "ĠmoÅ¾nÃ©": 434,
      "Vy": 435,
      "dy": 436,
      "ĠneÅ¾": 437,
      "ĠmusÃŃ": 438,
      "ina": 439,
      "sti": 440,
      "Ġp": 441,
      "Aj": 442,
      "Do": 443,
      "6": 444,
      "er": 445,
      "Ġ12": 446,
      "Ġyou": 447,
      "or": 448,
      "enia": 449,
      "nosÅ¥": 450,
      "w": 451,
      "Ġeste": 452,
      "cu": 453,
      "Ġve": 454,
      "tom": 455,
      "Ġob": 456,
      "Ġeur": 457,
      "Ġneho": 458,
      "ĠU": 459,
      "cov": 460,
      "Äįka": 461,
      "nÃ½mi": 462,
      "sku": 463,
      "Äįi": 464,
      "vy": 465,
      "ÄįnÃ©": 466,
      "sta": 467,
      "vÃ¡": 468,
      "ĠÅ¾ivot": 469,
      "do": 470,
      "Ġnaozaj": 471,
      "Ne": 472,
      "Ja": 473,
      "N": 474,
      "Ġnech": 475,
      "co": 476,
      "ed": 477,
      "Ġseba": 478,
      "Nie": 479,
      "ar": 480,
      "nosti": 481,
      "Ġtieto": 482,
      "Ġsvojich": 483,
      "Ġdva": 484,
      "ĠJ": 485,
      "Ġh": 486,
      "Ġnevy": 487,
      "Ġmiesto": 488,
      "pa": 489,
      "it": 490,
      "Ġraz": 491,
      "Ġfor": 492,
      "Ġkeby": 493,
      "nÄĽ": 494,
      "Ġhlavne": 495,
      "Ġnebude": 496,
      "7": 497,
      "tÃ¡": 498,
      "sko": 499,
      "R": 500,
      "Ġnaj": 501,
      "Ġsvojej": 502,
      "pe": 503,
      "on": 504,
      "is": 505,
      "rÃ¡": 506,
      "ÄĮo": 507,
      "ĠÄį": 508,
      "Ġroka": 509,
      "by": 510,
      "bu": 511,
      "ujem": 512,
      "Ġoblasti": 513,
      "vi": 514,
      "nych": 515,
      "ĠprÃ¡ce": 516,
      "ĠinÃ©": 517,
      "Ġokolo": 518,
      "ĠÃºplne": 519,
      "kovÃ¡": 520,
      "Od": 521,
      "Ġjedno": 522,
      "Ġmohli": 523,
      "Ã½m": 524,
      "ter": 525,
      "ĠpÃ¡r": 526,
      "Å¯": 527,
      "8": 528,
      "ĠPo": 529,
      "ĠÄįasti": 530,
      "Ġsvojho": 531,
      "Ġurl": 532,
      "ĠktorÃ©ho": 533,
      "Ġbyt": 534,
      "Ġdve": 535,
      "bi": 536,
      "ciu": 537,
      "Ġla": 538,
      "Ġ9": 539,
      "ÄįnÃ½": 540,
      "anie": 541,
      "Ġnic": 542,
      "Ġd": 543,
      "ĠÄıalej": 544,
      "ske": 545,
      "ge": 546,
      "ene": 547,
      "rov": 548,
      "ĠtÃ½chto": 549,
      "ĠNa": 550,
      ".,": 551,
      "ĠÅł": 552,
      "och": 553,
      "Ġneviem": 554,
      "ĠUSA": 555,
      "Ġdvoch": 556,
      "Ġme": 557,
      "ĠSlovensko": 558,
      "Ġsebe": 559,
      "kami": 560,
      "Äįky": 561,
      "Ġko": 562,
      "Ġ0": 563,
      "Ġ11": 564,
      "Ġtakmer": 565,
      "ĠniekoÄ¾ko": 566,
      "ĠdÃ¡": 567,
      "Ġ16": 568,
      "ĠnemÃ¡": 569,
      "Ġmoc": 570,
      "Ġkedy": 571,
      "ovanÃ©": 572,
      "tak": 573,
      "ĠÄıalÅ¡ie": 574,
      "ĠmÃ¡me": 575,
      "ĠpreÄįo": 576,
      "ĠvÄıaka": 577,
      "ĠtÃ½ch": 578,
      "lov": 579,
      "Ġ14": 580,
      "Ġ17": 581,
      "su": 582,
      "val": 583,
      "ÄĽ": 584,
      "Ġroky": 585,
      "skÃ½ch": 586,
      "ĠW": 587,
      "am": 588,
      "Ġnez": 589,
      "Ġrokoch": 590,
      "nie": 591,
      "Ġsveta": 592,
      "Ġc": 593,
      "Ġsvete": 594,
      "ĠmÃ¡te": 595,
      "ĠMa": 596,
      "Ã©ho": 597,
      "ste": 598,
      "rom": 599,
      "ĠproblÃ©m": 600,
      "ĠrÃ¡mci": 601,
      "ĠÄįlovek": 602,
      "mo": 603,
      "ĠmoÅ¾nosÅ¥": 604,
      "kÃ¡": 605,
      "ga": 606,
      "Ġmesta": 607,
      "cky": 608,
      "Ġ100": 609,
      "enÃ½ch": 610,
      "ĠVÃ¡m": 611,
      "9": 612,
      "Ġf": 613,
      "ili": 614,
      "Ġnielen": 615,
      "my": 616,
      "ĠvÃ½": 617,
      "ck": 618,
      "us": 619,
      "ĠtotiÅ¾": 620,
      "Ġmam": 621,
      "ĠhovorÃŃ": 622,
      "ĠvÃ´bec": 623,
      "nÃŃk": 624,
      "cka": 625,
      "len": 626,
      "ania": 627,
      "ĠÄįase": 628,
      "ĠurÄįite": 629,
      "ĠtakÅ¾e": 630,
      "J": 631,
      "as": 632,
      "UÅ¾": 633,
      "ĠnovÃ©": 634,
      "ĠÃº": 635,
      "enÃŃm": 636,
      "ĠÄįasÅ¥": 637,
      "ĠzÃ¡kona": 638,
      "ovÃ©ho": 639,
      "Ġokrem": 640,
      "ĠSlovenska": 641,
      "ĠtakÃ©": 642,
      "Ã½ch": 643,
      "ovanÃ½": 644,
      "ujeme": 645,
      "Ġfakt": 646,
      "Ä¾": 647,
      "Ġktorom": 648,
      "Ġt": 649,
      "Ġtrochu": 650,
      "Ġpresne": 651,
      "Å¾i": 652,
      "Ġmalo": 653,
      "aj": 654,
      "Ġ50": 655,
      "lÃŃ": 656,
      "Ġb": 657,
      "Ġ13": 658,
      "Ġdoma": 659,
      "Ġinak": 660,
      "ok": 661,
      "im": 662,
      "ten": 663,
      "Ġtakto": 664,
      "ĠinformÃ¡cie": 665,
      "Ġund": 666,
      "ĠskÃ´r": 667,
      "00": 668,
      "ĠaspoÅĪ": 669,
      "ĠvÅ¡etci": 670,
      "ĠprvÃ½": 671,
      "pi": 672,
      "ĠvlÃ¡dy": 673,
      "tÃŃ": 674,
      "Ġmohol": 675,
      "Ġle": 676,
      "et": 677,
      "ĠÄįasto": 678,
      "cÃŃ": 679,
      "Ġthat": 680,
      "ĠzÃ¡": 681,
      "Ġjako": 682,
      "ĠzÃ¡roveÅĪ": 683,
      "Å¡ia": 684,
      "Äįa": 685,
      "ĠÅ¾ivota": 686,
      "ovania": 687,
      "tou": 688,
      "ĠTo": 689,
      "Ġg": 690,
      "ovanÃŃ": 691,
      "ÅĪa": 692,
      "Ġit": 693,
      "hu": 694,
      "ĠNe": 695,
      "Ġist": 696,
      "ĠcelÃ½": 697,
      "iÅ¥": 698,
      "ĠRe": 699,
      "ali": 700,
      "ÅĪ": 701,
      "od": 702,
      "Ġnepo": 703,
      "Ġ21": 704,
      "Ġpriamo": 705,
      "ĠtÃºto": 706,
      "bo": 707,
      "ĠinÃ½ch": 708,
      "ÄįÃŃ": 709,
      "Ġpa": 710,
      "ĠspoloÄįnosÅ¥": 711,
      "Ġdokonca": 712,
      "ĠzÃ¡klade": 713,
      "Ġtej": 714,
      "ĠdosÅ¥": 715,
      "ĠzatiaÄ¾": 716,
      "Ġda": 717,
      "Ġcelkom": 718,
      "W": 719,
      "Ġmenej": 720,
      "Ġpeniaze": 721,
      "ĠopÃ¤Å¥": 722,
      "Ġstrane": 723,
      "ej": 724,
      "iny": 725,
      "ĠlepÅ¡ie": 726,
      "Ġ25": 727,
      "Ġvtedy": 728,
      "Åł": 729,
      "Ġmne": 730,
      "vaÅ¥": 731,
      "Tento": 732,
      "Ġden": 733,
      "ĠdnÃŃ": 734,
      "Ġjen": 735,
      "pu": 736,
      "ĠÄıalÅ¡ÃŃch": 737,
      "ovÃº": 738,
      "Ġnapr": 739,
      "ĠpotrebnÃ©": 740,
      "ĠnaÅ¡e": 741,
      "Å¡i": 742,
      "Ġch": 743,
      "ĠktorÃ½m": 744,
      "zu": 745,
      "Ġkrajiny": 746,
      "Ġdruhej": 747,
      "um": 748,
      "ĠnachÃ¡dza": 749,
      "Ġmieste": 750,
      "ana": 751,
      "Ġjedna": 752,
      "Ġka": 753,
      "ĠEÃļ": 754,
      "lom": 755,
      "es": 756,
      "Ġte": 757,
      "ila": 758,
      "ĠpovedaÅ¥": 759,
      "Ġru": 760,
      "Ġpla": 761,
      "Ġsvet": 762,
      "Toto": 763,
      "Ġvlastne": 764,
      "ĠÅ¥a": 765,
      "Ġpocit": 766,
      "nym": 767,
      "ena": 768,
      "ent": 769,
      "Ġjsou": 770,
      "nejÅ¡ie": 771,
      "men": 772,
      "ĠÅ¡": 773,
      "ÄįnÃ¡": 774,
      "ĠnaÅ¡ich": 775,
      "Ġsem": 776,
      "hy": 777,
      "Ġvec": 778,
      "ĠtÃ¡": 779,
      "anÃ©": 780,
      "tor": 781,
      "Ġzase": 782,
      "ĠnÃŃm": 783,
      "ĠrobiÅ¥": 784,
      "ĠsystÃ©m": 785,
      "Ġan": 786,
      "Äįku": 787,
      "ĠsÃ¡m": 788,
      "vali": 789,
      "Ġbudem": 790,
      "ĠsluÅ¾by": 791,
      "Ġnikto": 792,
      "Ã½mi": 793,
      "Äįnej": 794,
      "Ġprezident": 795,
      "eni": 796,
      "Ġsta": 797,
      "sy": 798,
      "Ã¡m": 799,
      "Ġ24": 800,
      "ovalo": 801,
      "Äįe": 802,
      "Ġsuper": 803,
      "Ġvie": 804,
      "Ġhra": 805,
      "ĠnaÅ¡ej": 806,
      "Ġjsem": 807,
      "ĠpriÄįom": 808,
      "cha": 809,
      "Ġbudete": 810,
      "Ġare": 811,
      "cii": 812,
      "ad": 813,
      "Ġder": 814,
      "Ġnajviac": 815,
      "anÃ½": 816,
      "ĠÅ¡koly": 817,
      "vat": 818,
      "Ġneza": 819,
      "ÄįnÃ½ch": 820,
      "Ġdomov": 821,
      "man": 822,
      "el": 823,
      "Ġpol": 824,
      "sÅ¥": 825,
      "Ġpar": 826,
      "ver": 827,
      "10": 828,
      "ĠÃŃsÅ¥": 829,
      "Ġnieco": 830,
      "Å¡ie": 831,
      "anÃŃ": 832,
      "he": 833,
      "ĠKo": 834,
      "ani": 835,
      "Ġdal": 836,
      "ĠneskÃ´r": 837,
      "Ġrovnako": 838,
      "ĠVy": 839,
      "Ġ19": 840,
      "Ġro": 841,
      "ĠBratislava": 842,
      "Ġas": 843,
      "ĠtÃº": 844,
      "ĠpatrÃŃ": 845,
      "Ġnimi": 846,
      "Ġba": 847,
      "ol": 848,
      "ĠLe": 849,
      "Ġtym": 850,
      "nov": 851,
      "Ġra": 852,
      "ĠThe": 853,
      "ob": 854,
      "lie": 855,
      "Ġnas": 856,
      "Ġ40": 857,
      "Ġceny": 858,
      "Vo": 859,
      "ĠtÃŃm": 860,
      "Ġniekedy": 861,
      "ĠmiliÃ³nov": 862,
      "ĠnÃ¡": 863,
      "ĠdÅĪa": 864,
      "Ġdostal": 865,
      "ĠvoÄįi": 866,
      "Ġjednu": 867,
      "ĠrÃ´znych": 868,
      "ĠSlovenskej": 869,
      "Ġsamozrejme": 870,
      "Ġbudeme": 871,
      "ĠSITA": 872,
      "lia": 873,
      "skeho": 874,
      "Ã³": 875,
      "ĠmnoÅ¾stvo": 876,
      "Ġjednej": 877,
      "Ġchcel": 878,
      "vajÃº": 879,
      "ÅĻ": 880,
      "nÃ©mu": 881,
      "ovanÃ¡": 882,
      "Ġuviedol": 883,
      "ber": 884,
      "rie": 885,
      "gu": 886,
      "ĠnovÃ½": 887,
      "Ġsebou": 888,
      "rat": 889,
      "Ġdas": 890,
      "ran": 891,
      "Ġpercent": 892,
      "ĠkÃ½m": 893,
      "Ġ22": 894,
      "sia": 895,
      "ĠÅĪom": 896,
      "vÃŃ": 897,
      "Ġzas": 898,
      "Ġneu": 899,
      "Ġchcete": 900,
      "Ġnapriek": 901,
      "kovej": 902,
      "Y": 903,
      "ĠkeÄıÅ¾e": 904,
      "tne": 905,
      "Ġviem": 906,
      "Ġsvojom": 907,
      "ĠVÃ¡s": 908,
      "Ġmna": 909,
      "neho": 910,
      "Ġnebo": 911,
      "Ġpravdu": 912,
      "ĠvrÃ¡tane": 913,
      "tion": 914,
      "ovo": 915,
      "ĠpoÄįet": 916,
      "Ġdlho": 917,
      "Ġskupiny": 918,
      "ove": 919,
      "Ã¡l": 920,
      "ĠdobrÃ©": 921,
      "_": 922,
      "Ġmeste": 923,
      "Okrem": 924,
      "ciou": 925,
      "Ġrepubliky": 926,
      "Ġmimo": 927,
      "ĠprÃ¡vo": 928,
      "vÃ½": 929,
      "tÃ©": 930,
      "ĠBa": 931,
      "ĠspÃ´sobom": 932,
      "vanie": 933,
      "ĠhneÄı": 934,
      "Ġdvoj": 935,
      "skou": 936,
      "nik": 937,
      "Ġwas": 938,
      "ud": 939,
      "enej": 940,
      "Ġver": 941,
      "ĠrÃ¡d": 942,
      "stvo": 943,
      "so": 944,
      "Ġmas": 945,
      "Ġdost": 946,
      "ĠveÄ¾kÃ©": 947,
      "Ġrada": 948,
      "ĠrÃ½chlo": 949,
      "Ġ23": 950,
      "ĠznamenÃ¡": 951,
      "skych": 952,
      "ĠproblÃ©my": 953,
      "ĠÄįasu": 954,
      "ut": 955,
      "hla": 956,
      "ĠzaÄįiatku": 957,
      "ĠÅ¡tÃ¡tu": 958,
      "ĠvlÃ¡da": 959,
      "ĠtÃ¡to": 960,
      "ĠÄįÃŃm": 961,
      "Ġrad": 962,
      "koch": 963,
      "Ġvody": 964,
      "ckÃ½": 965,
      "Ġnebol": 966,
      "Ã¡ch": 967,
      "ĠBratislave": 968,
      "ĠjednÃ©ho": 969,
      "Ġmoje": 970,
      "ĠsÃŃce": 971,
      "TakÅ¾e": 972,
      "Ġw": 973,
      "Ġ000": 974,
      "Ġpomoc": 975,
      "ujete": 976,
      "Ġauto": 977,
      "Ġprogram": 978,
      "ria": 979,
      "ÄįnÃ©ho": 980,
      "Ġtaky": 981,
      "Ã¡lne": 982,
      "Preto": 983,
      "Ġvelmi": 984,
      "lou": 985,
      "Ġnicht": 986,
      "Ġmin": 987,
      "Ġprvom": 988,
      "ĠzÃ¡kon": 989,
      "Ġoni": 990,
      "som": 991,
      "Ġslov": 992,
      "ĠprostrednÃŃctvom": 993,
      "ur": 994,
      "Ġdom": 995,
      "eniu": 996,
      "Ġr": 997,
      "ĠprÃŃ": 998,
      "ĠDe": 999,
      "Jeho": 1000,
      "fi": 1001,
      "ĠJa": 1002,
      "ĠkvÃ´li": 1003,
      "Ġbod": 1004,
      "nes": 1005,
      "up": 1006,
      "ĠBe": 1007,
      "Ten": 1008,
      "ĠmÃ´j": 1009,
      "Ġmil": 1010,
      "ju": 1011,
      "ĠJe": 1012,
      "anÃ¡": 1013,
      "Ġpan": 1014,
      "Ġpredsa": 1015,
      "ĠnajlepÅ¡ie": 1016,
      "zy": 1017,
      "ĠÅ¾eny": 1018,
      "Ġdi": 1019,
      "Ġtroch": 1020,
      "ĠobyvateÄ¾ov": 1021,
      "ral": 1022,
      "iek": 1023,
      "Len": 1024,
      "ÄĮ": 1025,
      "Å¡ÃŃm": 1026,
      "ji": 1027,
      "ĠrÃ´zne": 1028,
      "Ġtrhu": 1029,
      "sie": 1030,
      "Ġpritom": 1031,
      "vu": 1032,
      "ĠNo": 1033,
      "kovÃ©": 1034,
      "skÃº": 1035,
      "Ġbo": 1036,
      "ĠdetÃŃ": 1037,
      "Ġnebolo": 1038,
      "SÃº": 1039,
      "ovanÃ½ch": 1040,
      "Ġsp": 1041,
      "ĠÅ¾iadne": 1042,
      "ĠsÃºd": 1043,
      "ĠLa": 1044,
      "Ġvon": 1045,
      "ĠÄĮ": 1046,
      "ĠdieÅ¥a": 1047,
      "Ġj": 1048,
      "ĠÃºdajov": 1049,
      "ĠZa": 1050,
      "ckÃ©": 1051,
      "Å¾ÃŃ": 1052,
      "Ġwith": 1053,
      "Ãļ": 1054,
      "gen": 1055,
      "Ġnot": 1056,
      "Ġkon": 1057,
      "Ġludi": 1058,
      "tia": 1059,
      "Ġchcem": 1060,
      "ĠsÃºÄįasnosti": 1061,
      "Ġcenu": 1062,
      "ĠprÃ¡cu": 1063,
      "Å¡a": 1064,
      "vam": 1065,
      "Ġfirmy": 1066,
      "Ġx": 1067,
      "ĠponÃºka": 1068,
      "jte": 1069,
      "ĠpÃ¡n": 1070,
      "Ġprezidenta": 1071,
      "eny": 1072,
      "ĠsÃºÄįasÅ¥ou": 1073,
      "Ġmo": 1074,
      "av": 1075,
      "ĠKa": 1076,
      "os": 1077,
      "ÃŃn": 1078,
      "Ġpe": 1079,
      "id": 1080,
      "Ġaz": 1081,
      "ĠtakÃ½": 1082,
      "Ġpomocou": 1083,
      "ĠnÃ¡zor": 1084,
      "ĠniektorÃ½ch": 1085,
      "ĠMartin": 1086,
      "Äįia": 1087,
      "Ġmusia": 1088,
      "Ġn": 1089,
      "Ġdni": 1090,
      "ĠÅ¡tÃ¡t": 1091,
      "nil": 1092,
      "ĠpÃ¤Å¥": 1093,
      "Ġpravda": 1094,
      "Ġhave": 1095,
      "tky": 1096,
      "Ġhor": 1097,
      "Ġstav": 1098,
      "th": 1099,
      "nÃŃka": 1100,
      "Ġ60": 1101,
      "ĠminÃºt": 1102,
      "ĠpribliÅ¾ne": 1103,
      "Ġrady": 1104,
      "30": 1105,
      "Ġstal": 1106,
      "Ġzu": 1107,
      "Pred": 1108,
      "Ġkam": 1109,
      "Ġli": 1110,
      "Ġpr": 1111,
      "ĠspÃ´sob": 1112,
      "em": 1113,
      "Ġobce": 1114,
      "tel": 1115,
      "Ġhe": 1116,
      "ĠÄįloveka": 1117,
      "lÃ©": 1118,
      "Ġrozdiel": 1119,
      "ĠtÃ½Å¾deÅĪ": 1120,
      "Ġtiez": 1121,
      "ĠsystÃ©mu": 1122,
      "Ġnepre": 1123,
      "ĠMi": 1124,
      "cou": 1125,
      "ĠDo": 1126,
      "cku": 1127,
      "ĠCh": 1128,
      "ĠvidieÅ¥": 1129,
      "Ġjednoducho": 1130,
      "inu": 1131,
      "Ġmesto": 1132,
      "ĠEU": 1133,
      "Ġmiesta": 1134,
      "ĠnovÃ½ch": 1135,
      "til": 1136,
      "Ġthis": 1137,
      "den": 1138,
      "Ġmat": 1139,
      "ĠdaÅ¥": 1140,
      "Ġjste": 1141,
      "Ġpi": 1142,
      "Ã¤": 1143,
      "ĠvaÅ¡e": 1144,
      "ĠIn": 1145,
      "ĠurobiÅ¥": 1146,
      "ĠprÃŃliÅ¡": 1147,
      "les": 1148,
      "Ġpekne": 1149,
      "ĠMar": 1150,
      "sen": 1151,
      "sto": 1152,
      "mÃ¡": 1153,
      "ĠprÃ¡va": 1154,
      "X": 1155,
      "Ġpodla": 1156,
      "Ġzmluvy": 1157,
      "Ġpodobne": 1158,
      "Re": 1159,
      "vÃ©": 1160,
      "ĠPeter": 1161,
      "Ġsami": 1162,
      "nost": 1163,
      "11": 1164,
      "ĠÄıalÅ¡ÃŃ": 1165,
      "Ã¡r": 1166,
      "Ġtake": 1167,
      "tnÃ©": 1168,
      "ĠAl": 1169,
      "fa": 1170,
      "ĠvecÃŃ": 1171,
      "Ġradi": 1172,
      "ĠsprÃ¡vy": 1173,
      "ĠmÃ´Å¾eme": 1174,
      "ĠnÃ¡jdete": 1175,
      "Ġsto": 1176,
      "ĠnÃ¡jsÅ¥": 1177,
      "Äı": 1178,
      "Ġporiadku": 1179,
      "Ġstalo": 1180,
      "jÃŃ": 1181,
      "Ġ": 1182,
      "Ġpriestor": 1183,
      "ĠPa": 1184,
      "ĠmyslÃŃm": 1185,
      "res": 1186,
      "Ġwe": 1187,
      "Ġst": 1188,
      "Ġlo": 1189,
      "ĠPre": 1190,
      "ĠnÃ¡Å¡": 1191,
      "ĠveÄ¾kÃ½": 1192,
      "Som": 1193,
      "skÃ½m": 1194,
      "Ġteba": 1195,
      "0": 1196,
      "Å¡ÃŃch": 1197,
      "Ġhoci": 1198,
      "Ġmohla": 1199,
      "Ġved": 1200,
      "ĠstrÃ¡nke": 1201,
      "go": 1202,
      "ĠveÄįer": 1203,
      "py": 1204,
      "ckej": 1205,
      "ĠdostaÅ¥": 1206,
      "Ġzle": 1207,
      "Äįek": 1208,
      "nejÅ¡ÃŃ": 1209,
      "pre": 1210,
      "Ġes": 1211,
      "Ġpodmienky": 1212,
      "stu": 1213,
      "anÃŃm": 1214,
      "ine": 1215,
      "ĠakÃ©": 1216,
      "ĠcelÃ©": 1217,
      "jÃºci": 1218,
      "ĠdruhÃ½": 1219,
      "Ġmiest": 1220,
      "ĠchcÃº": 1221,
      "ĠÃºdaje": 1222,
      "enÃ©ho": 1223,
      "Ġat": 1224,
      "rou": 1225,
      "Ġ26": 1226,
      "zia": 1227,
      "ĠprÃŃstup": 1228,
      "000": 1229,
      "ĠMo": 1230,
      "un": 1231,
      "Ġhry": 1232,
      "Ġstra": 1233,
      "Ġrodiny": 1234,
      "Äįov": 1235,
      "Ġmeno": 1236,
      "Potom": 1237,
      "Ġminister": 1238,
      "ĠzÃ¡ujem": 1239,
      "ĠtÃŃ": 1240,
      "ĠkdyÅ¾": 1241,
      "Dnes": 1242,
      "any": 1243,
      "ĠkrajÃŃn": 1244,
      "ĠniektorÃ©": 1245,
      "Ġpostup": 1246,
      "Ġstrana": 1247,
      "ĠdÃ´leÅ¾itÃ©": 1248,
      "Ġskoro": 1249,
      "19": 1250,
      "dÃ¡": 1251,
      "ĠzaÄįal": 1252,
      "ĠÄįÃŃslo": 1253,
      "Ġludia": 1254,
      "ĠinformÃ¡ciÃŃ": 1255,
      "nÃºÅ¥": 1256,
      "ĠÃºrovni": 1257,
      "ĠvÃ½kon": 1258,
      "ot": 1259,
      "12": 1260,
      "Ġdobe": 1261,
      "Ġkm": 1262,
      "Ġpodporu": 1263,
      "ĠEurÃ³pskej": 1264,
      "kla": 1265,
      "nenie": 1266,
      "Ġmoja": 1267,
      "nÃŃm": 1268,
      "Ġnakoniec": 1269,
      "Ġ31": 1270,
      "Ġuplne": 1271,
      "Ġprvej": 1272,
      "chu": 1273,
      "nÃŃkov": 1274,
      "mer": 1275,
      "Ġnedo": 1276,
      "Ġman": 1277,
      "Ġup": 1278,
      "ĠHa": 1279,
      "Ġ28": 1280,
      "Ã¡k": 1281,
      "kon": 1282,
      "Ġ2018": 1283,
      "ĠcieÄ¾om": 1284,
      "ĠsÃºÅ¥aÅ¾e": 1285,
      "nice": 1286,
      "ler": 1287,
      "Ä¾a": 1288,
      "Ġpredaj": 1289,
      "tra": 1290,
      "op": 1291,
      "ĠBo": 1292,
      "Ġall": 1293,
      "ĠtÃ½mto": 1294,
      "ĠprvÃ©": 1295,
      "Ġmnoho": 1296,
      "zÃ¡": 1297,
      "ĠSk": 1298,
      "ĠjanuÃ¡ra": 1299,
      "lej": 1300,
      "ĠsluÅ¾ieb": 1301,
      "ts": 1302,
      "TÃ¡to": 1303,
      "Ġzrejme": 1304,
      "Ġpodarilo": 1305,
      "ĠnÃ¡vrh": 1306,
      "ER": 1307,
      "cej": 1308,
      "nia": 1309,
      "ĠpredovÅ¡etkÃ½m": 1310,
      "Ã¡lny": 1311,
      "ĠLu": 1312,
      "ĠnedÃ¡": 1313,
      "stva": 1314,
      "Ġ27": 1315,
      "tÃ½": 1316,
      "Ġcm": 1317,
      "Ã³n": 1318,
      "Ġpani": 1319,
      "Ġfilm": 1320,
      "ÄįnÃº": 1321,
      "ĠinÃ½": 1322,
      "ovom": 1323,
      "Ġrokmi": 1324,
      "ĠhodÃŃn": 1325,
      "Ġpiatok": 1326,
      "MoÅ¾no": 1327,
      "Ġvi": 1328,
      "jÃºce": 1329,
      "ved": 1330,
      "Ġop": 1331,
      "ek": 1332,
      "ovÃ½m": 1333,
      "ĠobdobÃŃ": 1334,
      "ier": 1335,
      "Tu": 1336,
      "ĠSa": 1337,
      "vou": 1338,
      "hli": 1339,
      "Ġtzv": 1340,
      "enÃº": 1341,
      "Ġvsetko": 1342,
      "ovanÃŃm": 1343,
      "ĠnemÃ´Å¾e": 1344,
      "toch": 1345,
      "Ġhlas": 1346,
      "ĠzÃ¡pas": 1347,
      "Ġkrajine": 1348,
      "Ġminulosti": 1349,
      "kovÃ½": 1350,
      "cami": 1351,
      "Ġmaju": 1352,
      "sch": 1353,
      "zuje": 1354,
      "Ġge": 1355,
      "Ã¡lna": 1356,
      "kovi": 1357,
      "vala": 1358,
      "ĠSe": 1359,
      "ĠdobrÃ½": 1360,
      "ĠprÃŃpadne": 1361,
      "Ġdu": 1362,
      "Å¡ka": 1363,
      "ĠjÃºna": 1364,
      "ĠkaÅ¾dÃ©ho": 1365,
      "Teraz": 1366,
      "Ġcca": 1367,
      "ĠAk": 1368,
      "tka": 1369,
      "Ġktore": 1370,
      "Ġosoby": 1371,
      "EN": 1372,
      "ĠnovÃ©ho": 1373,
      "Ġdomu": 1374,
      "Ġktory": 1375,
      "Ġvz": 1376,
      "Ġcelej": 1377,
      "cho": 1378,
      "ĠnejakÃ©": 1379,
      "ĠtÃ½ka": 1380,
      "ĠsprÃ¡vne": 1381,
      "ĠX": 1382,
      "ĠÄįinnosti": 1383,
      "tie": 1384,
      "ul": 1385,
      "ĠzaÄįali": 1386,
      "cko": 1387,
      "Ġdostali": 1388,
      "Ġseptembra": 1389,
      "ĠpredtÃ½m": 1390,
      "ĠnenÃŃ": 1391,
      "ĠvÅ¡etkÃ½m": 1392,
      "Ġtovaru": 1393,
      "raz": 1394,
      "ĠÅ¡tyri": 1395,
      "Ġresp": 1396,
      "Ġnemal": 1397,
      "Ide": 1398,
      "ĠnÃ¡Å¡ho": 1399,
      "Ġmarca": 1400,
      "ĠvÃ½sledky": 1401,
      "ren": 1402,
      "ĠvedieÅ¥": 1403,
      "ĠoveÄ¾a": 1404,
      "Ġmesiacov": 1405,
      "Ġsvojim": 1406,
      "Ã¡n": 1407,
      "ĠmÃ¡ja": 1408,
      "PreÄįo": 1409,
      "ckÃ¡": 1410,
      "Ġkonca": 1411,
      "ĠÅ¾": 1412,
      "ĠrobÃŃ": 1413,
      "Pod": 1414,
      "Ġal": 1415,
      "Ġcestu": 1416,
      "Ġsk": 1417,
      "Ġobsahuje": 1418,
      "Ġtra": 1419,
      "kÃ¡ch": 1420,
      "Ġcesty": 1421,
      "hne": 1422,
      "ĠsÃºvislosti": 1423,
      "ĠnejakÃ½": 1424,
      "tok": 1425,
      "Ġ80": 1426,
      "Ġ90": 1427,
      "hol": 1428,
      "Ġemail": 1429,
      "tal": 1430,
      "ist": 1431,
      "zie": 1432,
      "ss": 1433,
      "chy": 1434,
      "Ġor": 1435,
      "Tieto": 1436,
      "ĠLi": 1437,
      "Ã¡lnej": 1438,
      "Ġpostupne": 1439,
      "ovou": 1440,
      "Ġdoteraz": 1441,
      "Ġthey": 1442,
      "Ġparlamentu": 1443,
      "Ġpovedala": 1444,
      "ĠmÃ¡lo": 1445,
      "ĠÅ¾ivote": 1446,
      "Ġmen": 1447,
      "ner": 1448,
      "ĠoktÃ³bra": 1449,
      "ĠplatÃŃ": 1450,
      "Ġniekoho": 1451,
      "ĠpohÄ¾ad": 1452,
      "tickÃ©": 1453,
      "Ġniekde": 1454,
      "Ġona": 1455,
      "ĠPro": 1456,
      "ster": 1457,
      "Ġzmeny": 1458,
      "jÃºcich": 1459,
      "fe": 1460,
      "gi": 1461,
      "kol": 1462,
      "Ġnovembra": 1463,
      "Ġex": 1464,
      "Bol": 1465,
      "Ġsobotu": 1466,
      "ÅĪuje": 1467,
      "hÃ¡": 1468,
      "lil": 1469,
      "per": 1470,
      "ĠaprÃŃla": 1471,
      "Äįil": 1472,
      "Äįne": 1473,
      "ĠmÃ¡Å¡": 1474,
      "url": 1475,
      "Ġwill": 1476,
      "ger": 1477,
      "ciÃŃ": 1478,
      "ĠpriÅ¡iel": 1479,
      "son": 1480,
      "Ġveku": 1481,
      "ĠinÃ©ho": 1482,
      "Ġnaopak": 1483,
      "ĠprÃŃde": 1484,
      "ÄįnÃ½m": 1485,
      "Ġnes": 1486,
      "bor": 1487,
      "Ġlu": 1488,
      "lovÃ¡": 1489,
      "Ġproste": 1490,
      "ĠskutoÄįne": 1491,
      "ĠnemajÃº": 1492,
      "ĠvÃ½Å¡ke": 1493,
      "Ġneod": 1494,
      "Ġ29": 1495,
      "Ġ200": 1496,
      "tes": 1497,
      "tej": 1498,
      "kovÃ½ch": 1499,
      "ton": 1500,
      "Ġsama": 1501,
      "Ġhod": 1502,
      "Ġnoci": 1503,
      "ĠPri": 1504,
      "ĠpomÃ´cÅ¥": 1505,
      "uj": 1506,
      "ĠzÃŃskaÅ¥": 1507,
      "20": 1508,
      "nem": 1509,
      "Ġbi": 1510,
      "ĠKu": 1511,
      "ec": 1512,
      "Ġpozor": 1513,
      "NÃ¡": 1514,
      "ĠEurÃ³py": 1515,
      "ĠMe": 1516,
      "ff": 1517,
      "Ġkri": 1518,
      "Ġcom": 1519,
      "Ġmohlo": 1520,
      "zo": 1521,
      "MyslÃŃm": 1522,
      "Ġyour": 1523,
      "In": 1524,
      "niÅ¥": 1525,
      "nd": 1526,
      "nÃŃci": 1527,
      "che": 1528,
      "ĠTak": 1529,
      "ment": 1530,
      "ĠCo": 1531,
      "ĠstojÃŃ": 1532,
      "Ġnepri": 1533,
      "ĠprÃ¡ci": 1534,
      "Ġ2016": 1535,
      "Ġrade": 1536,
      "Ã¡d": 1537,
      "ĠÅ½": 1538,
      "ÃŃme": 1539,
      "ĠslovenskÃ½ch": 1540,
      "bra": 1541,
      "ĠjÃºla": 1542,
      "lit": 1543,
      "Ġano": 1544,
      "ĠmnohÃ½ch": 1545,
      "KaÅ¾dÃ½": 1546,
      "ÅĻÃŃ": 1547,
      "ore": 1548,
      "ĠtvrdÃŃ": 1549,
      "Ġmozno": 1550,
      "Ġtr": 1551,
      "ĠstoroÄįia": 1552,
      "VÄıaka": 1553,
      "ĠRa": 1554,
      "ĠÃºrad": 1555,
      "Ob": 1556,
      "Ġlet": 1557,
      "ĠPe": 1558,
      "Ġdodal": 1559,
      "cit": 1560,
      "Ġvraj": 1561,
      "Ġprogramu": 1562,
      "Ġceste": 1563,
      "Ġkonci": 1564,
      "ĠkoÄ¾ko": 1565,
      "ĠvyÅ¡e": 1566,
      "ĠposlednÃ½ch": 1567,
      "ĠdispozÃŃcii": 1568,
      "Ich": 1569,
      "Ġsmer": 1570,
      "ĠÄįlÃ¡nok": 1571,
      "ĠstrÃ¡n": 1572,
      "Ġha": 1573,
      "ĠvÃ½ber": 1574,
      "ted": 1575,
      "ilo": 1576,
      "ÅĻe": 1577,
      "ĠmoÅ¾nosti": 1578,
      "liÅ¥": 1579,
      "Ġboj": 1580,
      "Ġslovenskej": 1581,
      "ÄįiÅ¥": 1582,
      "Ġcena": 1583,
      "ĠÃļ": 1584,
      "cne": 1585,
      "Ġni": 1586,
      "Ġnevie": 1587,
      "Ġprojektu": 1588,
      "ĠagentÃºra": 1589,
      "jem": 1590,
      "Ġl": 1591,
      "Ġosobne": 1592,
      "Ġtrh": 1593,
      "tisÃŃc": 1594,
      "Ã©mu": 1595,
      "ĠcelÃ©ho": 1596,
      "Ġmusel": 1597,
      "Å½": 1598,
      "Ġjednom": 1599,
      "pri": 1600,
      "Ġprojekt": 1601,
      "ĠjasnÃ©": 1602,
      "Ġstredu": 1603,
      "ĠzaÄįala": 1604,
      "ĠradÅ¡ej": 1605,
      "ĠvÃ½voj": 1606,
      "bal": 1607,
      "Å¡e": 1608,
      "ĠpÃ¡": 1609,
      "roch": 1610,
      "ir": 1611,
      "anÃ½ch": 1612,
      "Ġjasne": 1613,
      "Ġnebola": 1614,
      "PoÄįas": 1615,
      "Ġtypu": 1616,
      "Ġcelom": 1617,
      "Ġnovej": 1618,
      "nut": 1619,
      "Ġper": 1620,
      "Å¡iu": 1621,
      "ĠpÅĻi": 1622,
      "nosÅ¥ou": 1623,
      "Å¡om": 1624,
      "Ġtelo": 1625,
      "ori": 1626,
      "Ġbudu": 1627,
      "ĠzaÄįÃŃna": 1628,
      "ĠrieÅ¡enie": 1629,
      "roÄįnÃ½": 1630,
      "Ġkoho": 1631,
      "ĠakÃ½": 1632,
      "rÃŃ": 1633,
      "ĠFico": 1634,
      "15": 1635,
      "Ġmesiac": 1636,
      "Ġneboli": 1637,
      "stra": 1638,
      "ĠrÃ¡no": 1639,
      "Ġ2017": 1640,
      "nici": 1641,
      "Ġ70": 1642,
      "hod": 1643,
      "Ġkom": 1644,
      "Äįo": 1645,
      "ako": 1646,
      "ĠdokÃ¡Å¾e": 1647,
      "ĠosÃ´b": 1648,
      "ĠnavyÅ¡e": 1649,
      "Ġchceli": 1650,
      "Ġzariadenia": 1651,
      "Äįili": 1652,
      "ĠAr": 1653,
      "kach": 1654,
      "lan": 1655,
      "por": 1656,
      "aniu": 1657,
      "Ġobci": 1658,
      "50": 1659,
      "ĠoÄįi": 1660,
      "ĠmalÃ©": 1661,
      "via": 1662,
      "Ġvys": 1663,
      "cen": 1664,
      "dÃŃ": 1665,
      "rt": 1666,
      "sty": 1667,
      "Ġfa": 1668,
      "rne": 1669,
      "Ġrobia": 1670,
      "stÃŃ": 1671,
      "teÄ¾": 1672,
      "Ġ2015": 1673,
      "ovanej": 1674,
      "pÃ¡": 1675,
      "Ġdecembra": 1676,
      "ĠSch": 1677,
      "lin": 1678,
      "ĠEurÃ³pe": 1679,
      "Ġods": 1680,
      "Ġstranu": 1681,
      "Ġnep": 1682,
      "ĠspÃ¤Å¥": 1683,
      "rad": 1684,
      "Ġhodiny": 1685,
      "Ġenergie": 1686,
      "ych": 1687,
      "ciach": 1688,
      "Ġaugusta": 1689,
      "kova": 1690,
      "nenÃ©": 1691,
      "ĠprÃ¡v": 1692,
      "ĠÄ¾uÄıom": 1693,
      "Ġsch": 1694,
      "RA": 1695,
      "ĠpÅĻed": 1696,
      "ĠpouÅ¾iÅ¥": 1697,
      "Ġok": 1698,
      "ĠÅ¾ien": 1699,
      "Ġnechce": 1700,
      "nutie": 1701,
      "Ġpriebehu": 1702,
      "ĠNew": 1703,
      "Ġbut": 1704,
      "Ġban": 1705,
      "Ġnemali": 1706,
      "ÃŃte": 1707,
      "Ġplat": 1708,
      "Ġpra": 1709,
      "Co": 1710,
      "ĠpokiaÄ¾": 1711,
      "Ġnejde": 1712,
      "anom": 1713,
      "zmus": 1714,
      "Ġcesta": 1715,
      "ĠÃºzemÃŃ": 1716,
      "Ġmoze": 1717,
      "nica": 1718,
      "Ġobec": 1719,
      "ĠmuÅ¾": 1720,
      "Ġcan": 1721,
      "sla": 1722,
      "Ġpu": 1723,
      "Ġobsah": 1724,
      "ĠosobnÃ½ch": 1725,
      "zna": 1726,
      "Ġcon": 1727,
      "Ġpondelok": 1728,
      "tam": 1729,
      "Ġproces": 1730,
      "The": 1731,
      "Ġobdobie": 1732,
      "ĠzariadenÃŃ": 1733,
      "bÃŃ": 1734,
      "ĠÃºnie": 1735,
      "Ġslovo": 1736,
      "Ġrozhodnutie": 1737,
      "ĠjednotlivÃ½ch": 1738,
      "Ġ2014": 1739,
      "ĠvyÅ¡Å¡ie": 1740,
      "nili": 1741,
      "ĠvoÄ¾bÃ¡ch": 1742,
      "Ġpost": 1743,
      "Ġbodov": 1744,
      "ES": 1745,
      "ĠtÃŃmu": 1746,
      "ujÃºce": 1747,
      "die": 1748,
      "Ġdruhom": 1749,
      "ĠvÃ¡Å¡": 1750,
      "mie": 1751,
      "Ġaspon": 1752,
      "pra": 1753,
      "ĠHo": 1754,
      "Ġsmerom": 1755,
      "pla": 1756,
      "Ġnena": 1757,
      "ng": 1758,
      "and": 1759,
      "CH": 1760,
      "Ġpravdepodobne": 1761,
      "Ġstale": 1762,
      "Ġnim": 1763,
      "nit": 1764,
      "min": 1765,
      "ĠmÄĽ": 1766,
      "ĠnÃ¡sledne": 1767,
      "Ã¶": 1768,
      "Ġknihy": 1769,
      "ĠÄ¾ahko": 1770,
      "raÅ¥": 1771,
      "Ani": 1772,
      "Ġvideo": 1773,
      "ĠvhodnÃ©": 1774,
      "Ġvas": 1775,
      "pov": 1776,
      "Ġri": 1777,
      "tili": 1778,
      "Ġkraj": 1779,
      "der": 1780,
      "del": 1781,
      "Ġfunguje": 1782,
      "TA": 1783,
      "Ġfunkcie": 1784,
      "Ġdobu": 1785,
      "ĠprosÃŃm": 1786,
      "Ġklubu": 1787,
      "aka": 1788,
      "Ġsam": 1789,
      "ĠÄįlenov": 1790,
      "ym": 1791,
      "ĠSu": 1792,
      "EÅ¡te": 1793,
      "ĠÅ¡esÅ¥": 1794,
      "Ġbych": 1795,
      "Kto": 1796,
      "gy": 1797,
      "dia": 1798,
      "ĠRo": 1799,
      "vania": 1800,
      "Ġrozhodne": 1801,
      "Ġpom": 1802,
      "ant": 1803,
      "Ã¡lneho": 1804,
      "ĠstaÄįÃŃ": 1805,
      "Ġsvojou": 1806,
      "Ġnoc": 1807,
      "sil": 1808,
      "Ġtovar": 1809,
      "ĠfebruÃ¡ra": 1810,
      "Ġfrom": 1811,
      "ik": 1812,
      "Äįom": 1813,
      "ĠtakÃ©to": 1814,
      "ĠSo": 1815,
      "Ty": 1816,
      "ckÃ½ch": 1817,
      "ĠÅ¡kole": 1818,
      "ĠobÄįanov": 1819,
      "Ġmojej": 1820,
      "nÃŃkom": 1821,
      "ĠÄįom": 1822,
      "tku": 1823,
      "cke": 1824,
      "ĠstrÃ¡nky": 1825,
      "ĠjednÃ½m": 1826,
      "ĠnedeÄ¾u": 1827,
      "stov": 1828,
      "Ġ2012": 1829,
      "Ġprie": 1830,
      "Ġkola": 1831,
      "ĠotÃ¡zky": 1832,
      "diÅ¥": 1833,
      "ĠnaÄıalej": 1834,
      "Ġmore": 1835,
      "ĠkoneÄįne": 1836,
      "Ġruky": 1837,
      "Ġochranu": 1838,
      "Ġpreco": 1839,
      "Ġmiliardy": 1840,
      "Ġhlavy": 1841,
      "ĠmuÅ¾ov": 1842,
      "ĠdesaÅ¥": 1843,
      "Ġvidel": 1844,
      "ct": 1845,
      "Ġnami": 1846,
      "Ġ500": 1847,
      "nymi": 1848,
      "Ġnema": 1849,
      "My": 1850,
      "Ġpak": 1851,
      "mom": 1852,
      "ĠtaktieÅ¾": 1853,
      "Ġzna": 1854,
      "Ġpoz": 1855,
      "Ġmuseli": 1856,
      "ys": 1857,
      "Ġpredseda": 1858,
      "sov": 1859,
      "ĠbudÃºcnosti": 1860,
      "ĠÅĪou": 1861,
      "TE": 1862,
      "Ġprostredia": 1863,
      "Ġobchod": 1864,
      "uz": 1865,
      "ĠÅ¾ena": 1866,
      "Ġvela": 1867,
      "ĠtisÃŃc": 1868,
      "ĠvÃ¤ÄįÅ¡ina": 1869,
      "Ġmit": 1870,
      "ĠÃ¡no": 1871,
      "ian": 1872,
      "pro": 1873,
      "zÃŃ": 1874,
      "Ġstane": 1875,
      "ckÃ©ho": 1876,
      "zen": 1877,
      "ĠkaÅ¾dej": 1878,
      "Ġ2010": 1879,
      "ĠhraÅ¥": 1880,
      "ĠJÃ¡n": 1881,
      "ĠÅ¡tvrtok": 1882,
      "Ġva": 1883,
      "ĠcelÃº": 1884,
      "ĠnÃ¡zvom": 1885,
      "Ġnem": 1886,
      "ĠÄįinnosÅ¥": 1887,
      "ĠtoÄ¾ko": 1888,
      "zmu": 1889,
      "ĠplÃ¡n": 1890,
      "Äįenie": 1891,
      "Ġskupina": 1892,
      "red": 1893,
      "let": 1894,
      "Äįila": 1895,
      "zovaÅ¥": 1896,
      "anov": 1897,
      "ĠvoÄ¾by": 1898,
      "ami": 1899,
      "zd": 1900,
      "enÃ½m": 1901,
      "Å¡t": 1902,
      "Ġpotreby": 1903,
      "PrÃ¡ve": 1904,
      "ĠveÄı": 1905,
      "ĠHe": 1906,
      "ĠviacerÃ½ch": 1907,
      "ĠpoÄįtu": 1908,
      "Ġhlavu": 1909,
      "ps": 1910,
      "tami": 1911,
      "hov": 1912,
      "Ġvplyv": 1913,
      "ĠkrÃ¡t": 1914,
      "Ġ35": 1915,
      "ĠostatnÃ½ch": 1916,
      "ĠnÃ¡rod": 1917,
      "Ġnev": 1918,
      "cÃŃch": 1919,
      "tnÃ½": 1920,
      "Ġdeje": 1921,
      "MÃ¡": 1922,
      "Ma": 1923,
      "ĠdÃ´vodu": 1924,
      "ĠTi": 1925,
      "Ã¡lnych": 1926,
      "Ġneo": 1927,
      "Ã´": 1928,
      "Roz": 1929,
      "So": 1930,
      "Ġchcela": 1931,
      "oz": 1932,
      "Ġer": 1933,
      "Ġproblem": 1934,
      "sh": 1935,
      "Ġmor": 1936,
      "tali": 1937,
      "ĠskÃºsenosti": 1938,
      "Ġznovu": 1939,
      "vom": 1940,
      "Ġbanky": 1941,
      "ĠkrÃ¡sne": 1942,
      "Ġtroj": 1943,
      "ujte": 1944,
      "ĠpeÅĪazÃŃ": 1945,
      "ckou": 1946,
      "Ġjim": 1947,
      "Ġoboch": 1948,
      "Ġzamestnancov": 1949,
      "ĠznaÄįky": 1950,
      "ĠÅ¥aÅ¾ko": 1951,
      "Ġlike": 1952,
      "Äįnom": 1953,
      "Aby": 1954,
      "bou": 1955,
      "Medzi": 1956,
      "Ġutorok": 1957,
      "Ġdole": 1958,
      "ich": 1959,
      "we": 1960,
      "Ġ32": 1961,
      "ĠPod": 1962,
      "Ġmetrov": 1963,
      "Ãģno": 1964,
      "sÃŃ": 1965,
      "Ġdostala": 1966,
      "ĠpremiÃ©r": 1967,
      "tora": 1968,
      "Ġtakze": 1969,
      "IS": 1970,
      "kam": 1971,
      "ĠsÃºdu": 1972,
      "ĠÄįlÃ¡nku": 1973,
      "rali": 1974,
      "ble": 1975,
      "Ġpolitiky": 1976,
      "ĠÄįlen": 1977,
      "ĠmusieÅ¥": 1978,
      "Ka": 1979,
      "vie": 1980,
      "Ġ2013": 1981,
      "Ġ2008": 1982,
      "cich": 1983,
      "Ġdane": 1984,
      "ĠBar": 1985,
      "Ġbud": 1986,
      "Ġznova": 1987,
      "Ġkole": 1988,
      "ĠjeÅ¡tÄĽ": 1989,
      "lÃº": 1990,
      "rÃº": 1991,
      "ĠÃºradu": 1992,
      "Ġvstup": 1993,
      "ĠpriÅ¡li": 1994,
      "VÅ¡etky": 1995,
      "Ġsmrti": 1996,
      "Ġhore": 1997,
      "ĠJu": 1998,
      "teÄ¾nÃ©": 1999,
      "hi": 2000,
      "ĠÅĪu": 2001,
      "kovÃ©ho": 2002,
      "ĠmiliÃ³na": 2003,
      "ovanÃ©ho": 2004,
      "Ġbu": 2005,
      "ĠzahraniÄįnÃ½ch": 2006,
      "Ġvojny": 2007,
      "stÃ¡": 2008,
      "ĠmÃ´Å¾em": 2009,
      "tÃŃvne": 2010,
      "ĠvÃ½razne": 2011,
      "ĠstretnutÃŃ": 2012,
      "IN": 2013,
      "Ġpodstate": 2014,
      "VÃ½": 2015,
      "Ġskor": 2016,
      "ĠzÃŃskal": 2017,
      "lenie": 2018,
      "ĠvyzerÃ¡": 2019,
      "Ġmm": 2020,
      "Ġclovek": 2021,
      "Ġdostane": 2022,
      "Ġdali": 2023,
      "tickÃ½": 2024,
      "ĠpÃŃÅ¡e": 2025,
      "Ġpres": 2026,
      "Ġhodnoty": 2027,
      "Ġher": 2028,
      "ĠvÃ¡Å¾ne": 2029,
      "Ġoproti": 2030,
      "Ã¡va": 2031,
      "Å¡ou": 2032,
      "ĠpracovaÅ¥": 2033,
      "Ġotec": 2034,
      "Ġpredstavuje": 2035,
      "ĠhovoriÅ¥": 2036,
      "Ġvzdy": 2037,
      "ĠII": 2038,
      "nec": 2039,
      "ĠstaÅ¥": 2040,
      "ril": 2041,
      "covi": 2042,
      "tnej": 2043,
      "Ġkdo": 2044,
      "Ġvobec": 2045,
      "ĠSta": 2046,
      "TI": 2047,
      "Å¾ia": 2048,
      "Ġsla": 2049,
      "Ġvyh": 2050,
      "cim": 2051,
      "ĠpozrieÅ¥": 2052,
      "Ġbyl": 2053,
      "ĠDu": 2054,
      "ies": 2055,
      "ĠnaÅ¡om": 2056,
      "ujÃºci": 2057,
      "Ġchod": 2058,
      "ĠAn": 2059,
      "Å¡ej": 2060,
      "ckom": 2061,
      "Ġ2009": 2062,
      "Ġpotrebuje": 2063,
      "ĠslovenskÃ½": 2064,
      "ĠnovÃº": 2065,
      "uju": 2066,
      "ĠnemÃ¡m": 2067,
      "Ġpodpor": 2068,
      "Ġosoba": 2069,
      "ĠriaditeÄ¾": 2070,
      "ĠslovÃ¡": 2071,
      "Ġtela": 2072,
      "tek": 2073,
      "ĠsvojÃŃm": 2074,
      "ĠotÃ¡zku": 2075,
      "ĠmÃ´cÅ¥": 2076,
      "anu": 2077,
      "ĠistÃ©": 2078,
      "Ġtre": 2079,
      "Ãģ": 2080,
      "tovÃ©": 2081,
      "ĠumoÅ¾ÅĪuje": 2082,
      "ĠminimÃ¡lne": 2083,
      "Ġreali": 2084,
      "Ġneni": 2085,
      "Ġmnou": 2086,
      "Ġnejaky": 2087,
      "ĠktorÃ½mi": 2088,
      "VeÄı": 2089,
      "lili": 2090,
      "Ġjed": 2091,
      "ĠproblÃ©mov": 2092,
      "ĠskutoÄįnosti": 2093,
      "Ġout": 2094,
      "ĠTe": 2095,
      "tila": 2096,
      "Jej": 2097,
      "Ġmotor": 2098,
      "Ġobe": 2099,
      "Ġpeople": 2100,
      "ĠvlastnÃ©": 2101,
      "ĠdÃ´vod": 2102,
      "Asi": 2103,
      "Bolo": 2104,
      "Ġein": 2105,
      "ĠÄįe": 2106,
      "ĠGa": 2107,
      "vanÃŃ": 2108,
      "Ġzlo": 2109,
      "ven": 2110,
      "Ġkazdy": 2111,
      "Ġhru": 2112,
      "ĠprÃŃbeh": 2113,
      "Ġvysoko": 2114,
      "ala": 2115,
      "MÃ¡m": 2116,
      "ĠCa": 2117,
      "ĠJan": 2118,
      "ĠzaÄįne": 2119,
      "Ġurcite": 2120,
      "Samozrejme": 2121,
      "ÅĻi": 2122,
      "Ġzmysel": 2123,
      "Ġtrest": 2124,
      "nika": 2125,
      "Ġnamiesto": 2126,
      "Ġnam": 2127,
      "Ġrozhodol": 2128,
      "Ġtych": 2129,
      "Ġover": 2130,
      "Ġnemu": 2131,
      "ĠdÃ¡vno": 2132,
      "dili": 2133,
      "Ġmyslim": 2134,
      "ks": 2135,
      "stup": 2136,
      "40": 2137,
      "Äįko": 2138,
      "Ġsnad": 2139,
      "ers": 2140,
      "Alebo": 2141,
      "Ġmoci": 2142,
      "Ġakoby": 2143,
      "Ġzem": 2144,
      "ĠdÅĪoch": 2145,
      "ĠFa": 2146,
      "ĠtakÃ¡": 2147,
      "Äįiek": 2148,
      "Ġvedia": 2149,
      "kÃ©": 2150,
      "ĠSi": 2151,
      "ĠSt": 2152,
      "Ġtyp": 2153,
      "tiÅ¥": 2154,
      "tickej": 2155,
      "ĠzaÄįaÅ¥": 2156,
      "Naj": 2157,
      "OV": 2158,
      "Ġdenne": 2159,
      "Ġhu": 2160,
      "LA": 2161,
      "ĠkaÅ¾dom": 2162,
      "ĠhrÃ¡Äįov": 2163,
      "pl": 2164,
      "Nech": 2165,
      "ĠÃºroveÅĪ": 2166,
      "Ġ2006": 2167,
      "zne": 2168,
      "IA": 2169,
      "Ġrozum": 2170,
      "ĠBu": 2171,
      "Ġanti": 2172,
      "Ġ2007": 2173,
      "rovÃ¡": 2174,
      "ĠorganizÃ¡cie": 2175,
      "Ġpodobe": 2176,
      "covia": 2177,
      "hor": 2178,
      "lik": 2179,
      "Ġrast": 2180,
      "ĠrodiÄįov": 2181,
      "ĠpouÅ¾ÃŃvaÅ¥": 2182,
      "ĠnÃ¡klady": 2183,
      "Ġklub": 2184,
      "Ġzmysle": 2185,
      "pis": 2186,
      "Äįke": 2187,
      "enom": 2188,
      "tickÃ½ch": 2189,
      "Ġautor": 2190,
      "ĠmusÃŃm": 2191,
      "asi": 2192,
      "Ġdoby": 2193,
      "Ġpatria": 2194,
      "Ġdat": 2195,
      "tickÃ¡": 2196,
      "Ġdr": 2197,
      "ĠSmer": 2198,
      "ovaniu": 2199,
      "tovÃ¡": 2200,
      "rob": 2201,
      "Ġum": 2202,
      "Ġke": 2203,
      "ĠÄįakÃ¡": 2204,
      "ĠTV": 2205,
      "ÄįnÃŃ": 2206,
      "ĠMu": 2207,
      "Ġjednou": 2208,
      "sne": 2209,
      "ĠmusÃŃme": 2210,
      "TO": 2211,
      "vne": 2212,
      "ling": 2213,
      "ĠY": 2214,
      "Ġhas": 2215,
      "ĠTa": 2216,
      "Ġone": 2217,
      "Ġmodel": 2218,
      "Ġos": 2219,
      "ĠGu": 2220,
      "lovÃ©": 2221,
      "ĠvyhlÃ¡sil": 2222,
      "Ġvieme": 2223,
      "tÃº": 2224,
      "mov": 2225,
      "Ġhned": 2226,
      "Ġ2011": 2227,
      "Ġnejake": 2228,
      "Ġlidi": 2229,
      "Ġfirma": 2230,
      "ĠpouÅ¾ÃŃva": 2231,
      "ski": 2232,
      "Ġauch": 2233,
      "pom": 2234,
      "Ġbla": 2235,
      "ĠÅ¾i": 2236,
      "Ġfarby": 2237,
      "Ġdont": 2238,
      "nila": 2239,
      "Ġulici": 2240,
      "Ġsily": 2241,
      "Ġauta": 2242,
      "Ġbylo": 2243,
      "ĠDi": 2244,
      "pÃŃ": 2245,
      "Ġsie": 2246,
      "13": 2247,
      "Napriek": 2248,
      "ard": 2249,
      "ĠÅ¡ancu": 2250,
      "Ġvedie": 2251,
      "Ġstala": 2252,
      "hra": 2253,
      "Ġvlasy": 2254,
      "Ġpomerne": 2255,
      "Ko": 2256,
      "van": 2257,
      "ĠhrÃ¡": 2258,
      "Ġobraz": 2259,
      "pal": 2260,
      "Ġchceme": 2261,
      "De": 2262,
      "PokiaÄ¾": 2263,
      "ĠvÃŃ": 2264,
      "Ġweb": 2265,
      "Ã©r": 2266,
      "18": 2267,
      "ĠÅ¡Ã©f": 2268,
      "krÃ¡t": 2269,
      "Ġjo": 2270,
      "Ġsvojimi": 2271,
      "tr": 2272,
      "ajte": 2273,
      "ft": 2274,
      "KeÄıÅ¾e": 2275,
      "Ġsamo": 2276,
      "her": 2277,
      "25": 2278,
      "ĠpolÃŃcia": 2279,
      "Ġce": 2280,
      "zÃ¡cia": 2281,
      "lÃ½": 2282,
      "skym": 2283,
      "ĠzÃ¡pase": 2284,
      "Ġdvaja": 2285,
      "ĠvytvoriÅ¥": 2286,
      "Ãį": 2287,
      "enÃ½mi": 2288,
      "Ġexistuje": 2289,
      "ĠzmeniÅ¥": 2290,
      "ĠnebudÃº": 2291,
      "nejÅ¡ÃŃch": 2292,
      "rovi": 2293,
      "Ġtady": 2294,
      "Ġfo": 2295,
      "ĠMS": 2296,
      "bie": 2297,
      "ĠslovenskÃ©ho": 2298,
      "ĠchuÅ¥": 2299,
      "Ġkr": 2300,
      "zal": 2301,
      "Ġtitul": 2302,
      "ag": 2303,
      "ĠdoÅ¡lo": 2304,
      "end": 2305,
      "Ġministerstvo": 2306,
      "nite": 2307,
      "ĠÅ¥aÅ¾kÃ©": 2308,
      "ĠmladÃ½ch": 2309,
      "Ġosem": 2310,
      "ĠvrÃ¡tiÅ¥": 2311,
      "land": 2312,
      "Ġzadarmo": 2313,
      "Ġvam": 2314,
      "vame": 2315,
      "KA": 2316,
      "ĠznÃ¡me": 2317,
      "Ġpodmienok": 2318,
      "rka": 2319,
      "rok": 2320,
      "Ġlist": 2321,
      "ĠfinanciÃŃ": 2322,
      "Ġ2000": 2323,
      "Ġrozvoj": 2324,
      "ĠdÃ¡va": 2325,
      "Ġlie": 2326,
      "ĠokolÃŃ": 2327,
      "est": 2328,
      "ĠÅ¡tÃ¡tov": 2329,
      "Ġnajmenej": 2330,
      "sim": 2331,
      "ĠsÃºlade": 2332,
      "Ġviete": 2333,
      "VA": 2334,
      "ĠSMS": 2335,
      "ll": 2336,
      "Äįkou": 2337,
      "Ġpomoci": 2338,
      "kÃ¡m": 2339,
      "stom": 2340,
      "60": 2341,
      "16": 2342,
      "sp": 2343,
      "AR": 2344,
      "Ġ45": 2345,
      "ĠKon": 2346,
      "ĠZÃ¡": 2347,
      "roz": 2348,
      "AS": 2349,
      "ĠjednoduchÃ©": 2350,
      "ZÃ¡": 2351,
      "Ġzmenu": 2352,
      "ĠnaÅ¡u": 2353,
      "Ġonline": 2354,
      "ĠOd": 2355,
      "Ã¡lnu": 2356,
      "ĠvÃ¤ÄįÅ¡inou": 2357,
      "Ġine": 2358,
      "ĠÅ¡kÃ´l": 2359,
      "Ġjsme": 2360,
      "ĠchvÃŃÄ¾u": 2361,
      "ÅĪujÃº": 2362,
      "ĠvyuÅ¾iÅ¥": 2363,
      "ĠRu": 2364,
      "ĠVa": 2365,
      "Ġpas": 2366,
      "Ġkolo": 2367,
      "ĠneustÃ¡le": 2368,
      "ĠavÅ¡ak": 2369,
      "ĠprÃŃpad": 2370,
      "ĠmÃ´jho": 2371,
      "Ġstave": 2372,
      "rd": 2373,
      "Ġkry": 2374,
      "ĠprvÃ©ho": 2375,
      "gra": 2376,
      "Ġut": 2377,
      "Ġtebe": 2378,
      "Ġhej": 2379,
      "ĠMichal": 2380,
      "pad": 2381,
      "ĠÄįin": 2382,
      "Ġwhat": 2383,
      "ĠrieÅ¡iÅ¥": 2384,
      "ĠsÃºÅ¥aÅ¾": 2385,
      "ĠbÃ½t": 2386,
      "ĠÅ¾ije": 2387,
      "ĠÄĮR": 2388,
      "Ġodbor": 2389,
      "vej": 2390,
      "Ġdruhy": 2391,
      "ĠTy": 2392,
      "Zo": 2393,
      "Ġauf": 2394,
      "ĠdolÃ¡rov": 2395,
      "Ġjust": 2396,
      "Ġakcie": 2397,
      "Ġvyp": 2398,
      "Ã¡t": 2399,
      "Mo": 2400,
      "Ġcas": 2401,
      "Ġsed": 2402,
      "lad": 2403,
      "tim": 2404,
      "Ġtvoj": 2405,
      "ĠkaÅ¾dÃ©": 2406,
      "ked": 2407,
      "Ġpohyb": 2408,
      "ĠbuÄı": 2409,
      "ĠpodobnÃ©": 2410,
      "Ġnap": 2411,
      "Ġchy": 2412,
      "ĠvybraÅ¥": 2413,
      "kal": 2414,
      "Ġnajprv": 2415,
      "Ġzemi": 2416,
      "aju": 2417,
      "Ġ300": 2418,
      "ĠktorÃ©mu": 2419,
      "VÅ¡etko": 2420,
      "stav": 2421,
      "chod": 2422,
      "iel": 2423,
      "ĠveÄ¾kÃ¡": 2424,
      "hle": 2425,
      "ub": 2426,
      "ĠfinÃ¡le": 2427,
      "nt": 2428,
      "Å¡ieho": 2429,
      "Ġpomaly": 2430,
      "teÄ¾nÃ½": 2431,
      "ĠVi": 2432,
      "stve": 2433,
      "Ġus": 2434,
      "ĠDa": 2435,
      "Ġvolieb": 2436,
      "ĠmyslÃŃ": 2437,
      "ron": 2438,
      "ĠnemusÃŃ": 2439,
      "Ġnoch": 2440,
      "skÃŃ": 2441,
      "Ġsedem": 2442,
      "ĠnaÅ¡a": 2443,
      "tovej": 2444,
      "ĠOb": 2445,
      "Ġstud": 2446,
      "Ġstavu": 2447,
      "Ġaktivity": 2448,
      "Ġdar": 2449,
      "ĠpokraÄįovaÅ¥": 2450,
      "Ġple": 2451,
      "ĠÅ¾iÅ¥": 2452,
      "Å½e": 2453,
      "ĠkrajinÃ¡ch": 2454,
      "ĠvnÃºtra": 2455,
      "Ġkvality": 2456,
      "Ġpoli": 2457,
      "14": 2458,
      "Ġtest": 2459,
      "Ġhad": 2460,
      "ĠnÃ¡zov": 2461,
      "Ġvedel": 2462,
      "ranie": 2463,
      "tovÃ½": 2464,
      "ĠRusko": 2465,
      "Ġ33": 2466,
      "Ã¼": 2467,
      "Ġministerstva": 2468,
      "fo": 2469,
      "ĠvÃ½sledok": 2470,
      "Ġochrany": 2471,
      "ig": 2472,
      "ĠprÃŃpadoch": 2473,
      "Ch": 2474,
      "Ġprave": 2475,
      "Ġrozhodnutia": 2476,
      "AN": 2477,
      "ĠÅ¡tyroch": 2478,
      "Å¡te": 2479,
      "ĠIm": 2480,
      "kt": 2481,
      "ama": 2482,
      "ĠdruhÃ©ho": 2483,
      "Keby": 2484,
      "han": 2485,
      "Ġkla": 2486,
      "ĠvzÅ¥ah": 2487,
      "ĠrieÅ¡enia": 2488,
      "KO": 2489,
      "Ġslu": 2490,
      "Ġrodina": 2491,
      "Ġuviedla": 2492,
      "Ġca": 2493,
      "ĠvÃ½znam": 2494,
      "Ġtou": 2495,
      "ĠsociÃ¡lnych": 2496,
      "Ġhier": 2497,
      "ĠÅ¡tvor": 2498,
      "Ġkonania": 2499,
      "ĠistÃ½": 2500,
      "Ġits": 2501,
      "AL": 2502,
      "Ġzdrojov": 2503,
      "Ġdala": 2504,
      "Å¯m": 2505,
      "dali": 2506,
      "Ġkoniec": 2507,
      "ano": 2508,
      "Ġurobil": 2509,
      "ujÃºcich": 2510,
      "ĠAle": 2511,
      "Ġvoda": 2512,
      "OR": 2513,
      "Ġposkytuje": 2514,
      "ĠJozef": 2515,
      "ĠÃºlohu": 2516,
      "lenÃ©": 2517,
      "Ġporiadne": 2518,
      "lep": 2519,
      "ĠVo": 2520,
      "On": 2521,
      "ĠosobnÃ©": 2522,
      "ĠjÃ¡": 2523,
      "Ġktorou": 2524,
      "ĠprichÃ¡dza": 2525,
      "zÃ¡cie": 2526,
      "Å¾ili": 2527,
      "stickÃ©": 2528,
      "ĠtÃ½Å¾dne": 2529,
      "Ġkrok": 2530,
      "Ġdopravy": 2531,
      "ĠprvÃ½ch": 2532,
      "wa": 2533,
      "ĠpÃ´sobÃŃ": 2534,
      "Ġmesiace": 2535,
      "Ġif": 2536,
      "Ġen": 2537,
      "hal": 2538,
      "Kon": 2539,
      "Le": 2540,
      "ham": 2541,
      "Äįan": 2542,
      "chov": 2543,
      "ĠNATO": 2544,
      "Ġsich": 2545,
      "Ġsiete": 2546,
      "Ġbudou": 2547,
      "ĠsprÃ¡vu": 2548,
      "Ġpokoj": 2549,
      "ingu": 2550,
      "rÃ¡t": 2551,
      "Ġcen": 2552,
      "Ġnieje": 2553,
      "Ã¡cia": 2554,
      "ĠdÃ´sledku": 2555,
      "Tie": 2556,
      "Ġrovno": 2557,
      "Ġprostredie": 2558,
      "Ġpozri": 2559,
      "ĠnÃ¡vrhu": 2560,
      "Ġpolo": 2561,
      "Viac": 2562,
      "rod": 2563,
      "ĠNA": 2564,
      "Äįania": 2565,
      "Ã¡lnym": 2566,
      "ĠtrÃ©ner": 2567,
      "ĠhÄ¾adiska": 2568,
      "ini": 2569,
      "cal": 2570,
      "pat": 2571,
      "ic": 2572,
      "Neviem": 2573,
      "zÃ¡ciu": 2574,
      "NE": 2575,
      "ĠpÅĻe": 2576,
      "ĠsituÃ¡cia": 2577,
      "cer": 2578,
      "Ġar": 2579,
      "ĠporovnanÃŃ": 2580,
      "nenia": 2581,
      "Ġopak": 2582,
      "Ġfajn": 2583,
      "Ġobdobia": 2584,
      "ĠinÃ½m": 2585,
      "Ġam": 2586,
      "enou": 2587,
      "rem": 2588,
      "ickÃ©": 2589,
      "ĠatÄı": 2590,
      "Ġslova": 2591,
      "Ġmar": 2592,
      "Ġnapokon": 2593,
      "ĠsituÃ¡ciu": 2594,
      "ple": 2595,
      "Lebo": 2596,
      "ĠveÄ¾kÃº": 2597,
      "Ġzvo": 2598,
      "zni": 2599,
      "ĠminulÃ½": 2600,
      "TÃ¡": 2601,
      "Ġministra": 2602,
      "ĠkaÅ¾dÃº": 2603,
      "ĠVer": 2604,
      "zky": 2605,
      "80": 2606,
      "ĠpomÃ¡ha": 2607,
      "ĠsnaÅ¾ÃŃ": 2608,
      "Ġkomuni": 2609,
      "VeÄ¾mi": 2610,
      "Ġsko": 2611,
      "ĠIvan": 2612,
      "RO": 2613,
      "ED": 2614,
      "ĠuvÃ¡dza": 2615,
      "vÄĽ": 2616,
      "OS": 2617,
      "2018": 2618,
      "zer": 2619,
      "ĠkultÃºry": 2620,
      "17": 2621,
      "Å¡ko": 2622,
      "ĠprÃ¡ca": 2623,
      "ĠniekoÄ¾kÃ½ch": 2624,
      "Ġoh": 2625,
      "rik": 2626,
      "Ġ36": 2627,
      "ĠnapÃŃsal": 2628,
      "ĠKoÅ¡ice": 2629,
      "ĠpovaÅ¾uje": 2630,
      "ĠvÅ¡ade": 2631,
      "aÅ¥": 2632,
      "Ġlete": 2633,
      "ĠzlÃ©": 2634,
      "prav": 2635,
      "ave": 2636,
      "ĠminulÃ©ho": 2637,
      "Ġtele": 2638,
      "ĠostatnÃ©": 2639,
      "ZÃ¡roveÅĪ": 2640,
      "ĠsprÃ¡va": 2641,
      "Bez": 2642,
      "ĠsituÃ¡cie": 2643,
      "dit": 2644,
      "Ġverejnosti": 2645,
      "Ġcestou": 2646,
      "Ġspo": 2647,
      "Ġ2004": 2648,
      "Ġpracuje": 2649,
      "for": 2650,
      "Ġ34": 2651,
      "ise": 2652,
      "Ġmoj": 2653,
      "Ġeuro": 2654,
      "Ġmyslel": 2655,
      "ĠUSD": 2656,
      "xi": 2657,
      "Ġdvere": 2658,
      "24": 2659,
      "Ġpane": 2660,
      "ĠjedinÃ½": 2661,
      "Ġpravidelne": 2662,
      "Ġpos": 2663,
      "ĠsezÃ³ne": 2664,
      "Ġmame": 2665,
      "Ġjejich": 2666,
      "tem": 2667,
      "Äįnou": 2668,
      "NaprÃŃklad": 2669,
      "ĠnaÅ¡i": 2670,
      "Ġnu": 2671,
      "Ġatd": 2672,
      "ĠOSN": 2673,
      "ory": 2674,
      "vky": 2675,
      "ĠnÄĽco": 2676,
      "Ġkar": 2677,
      "ide": 2678,
      "ĠobÄįas": 2679,
      "ĠpouÅ¾itie": 2680,
      "ĠlepÅ¡ÃŃ": 2681,
      "Ġodpad": 2682,
      "ovacie": 2683,
      "Ġtomuto": 2684,
      "ceho": 2685,
      "Ġpot": 2686,
      "cht": 2687,
      "Ġgo": 2688,
      "Ġjedine": 2689,
      "ĠcieÄ¾": 2690,
      "Ġzoznam": 2691,
      "ĠregiÃ³ne": 2692,
      "Å¾a": 2693,
      "Ġgu": 2694,
      "ĠÅ¾iadny": 2695,
      "ĠpozornosÅ¥": 2696,
      "ĠprvÃ½krÃ¡t": 2697,
      "ban": 2698,
      "Ġdis": 2699,
      "Ġopatrenia": 2700,
      "Ġbrat": 2701,
      "ĠfÃ¼r": 2702,
      "Ġsen": 2703,
      "Ġdalo": 2704,
      "ĠnajlepÅ¡ÃŃ": 2705,
      "Ġvod": 2706,
      "ĠsezÃ³ny": 2707,
      "Ġfotky": 2708,
      "ĠBoh": 2709,
      "Ġwho": 2710,
      "qu": 2711,
      "pr": 2712,
      "ĠvÃŃkend": 2713,
      "Ġkoncom": 2714,
      "iz": 2715,
      "mal": 2716,
      "Ġmysli": 2717,
      "ĠSP": 2718,
      "gh": 2719,
      "Ġvzniku": 2720,
      "tro": 2721,
      "Ġforme": 2722,
      "Ġzlom": 2723,
      "Ġnebudem": 2724,
      "ite": 2725,
      "Ġnur": 2726,
      "jak": 2727,
      "ĠspoluprÃ¡ci": 2728,
      "ĠobcÃŃ": 2729,
      "ÄįenÃ©": 2730,
      "lÃŃk": 2731,
      "ino": 2732,
      "ĠHor": 2733,
      "hr": 2734,
      "vate": 2735,
      "tnÃ¡": 2736,
      "Ġtheir": 2737,
      "ĠpredstaviÅ¥": 2738,
      "Ġ2005": 2739,
      "Ġposlancov": 2740,
      "Ġtan": 2741,
      "ĠTu": 2742,
      "cy": 2743,
      "Ġcentra": 2744,
      "ĠmusÃŃte": 2745,
      "Ġidem": 2746,
      "ĠuvedenÃ©": 2747,
      "?!": 2748,
      "ĠnovÃ¡": 2749,
      "ĠvÃ½chod": 2750,
      "ĠlekÃ¡r": 2751,
      "ĠposlednÃ©": 2752,
      "ĠkÃºpiÅ¥": 2753,
      "kovÃº": 2754,
      "skÃ½mi": 2755,
      "Ġhlave": 2756,
      "Ġdvoma": 2757,
      "ÅĪu": 2758,
      "oo": 2759,
      "ÃŃk": 2760,
      "Bola": 2761,
      "mÃŃ": 2762,
      "Ġvlastnej": 2763,
      "Ġnikoho": 2764,
      "ĠBratislavy": 2765,
      "ser": 2766,
      "Ġgra": 2767,
      "AÅ¾": 2768,
      "Ġkvalitu": 2769,
      "kÃ½": 2770,
      "vka": 2771,
      "ĠprÃŃsÅ¥": 2772,
      "ĠvaÅ¡ej": 2773,
      "chÃ¡": 2774,
      "Ġhodinu": 2775,
      "Ġplynu": 2776,
      "inÃ¡": 2777,
      "ĠmateriÃ¡l": 2778,
      "Ġvodu": 2779,
      "Ġpovrch": 2780,
      "ĠdosiahnuÅ¥": 2781,
      "zat": 2782,
      "Ġzdroj": 2783,
      "Ġdome": 2784,
      "raj": 2785,
      "Ġpalce": 2786,
      "US": 2787,
      "ĠmalÃ½": 2788,
      "Ġnejak": 2789,
      "Ġkup": 2790,
      "Ġpercenta": 2791,
      "ĠdivÃ¡kov": 2792,
      "Ġfi": 2793,
      "ĠspoloÄįne": 2794,
      "Ġabout": 2795,
      "Ġkrajina": 2796,
      "nutÃŃ": 2797,
      "Ġsyn": 2798,
      "hom": 2799,
      "alebo": 2800,
      "dila": 2801,
      "vÃ½ch": 2802,
      "Ġobrany": 2803,
      "iÄį": 2804,
      "Ġstre": 2805,
      "tla": 2806,
      "Ġprodukty": 2807,
      "Ġ150": 2808,
      "Ġvzduchu": 2809,
      "ĠprvÃ¡": 2810,
      "ĠmateriÃ¡lu": 2811,
      "sit": 2812,
      "ĠlÃŃ": 2813,
      "ĠnajskÃ´r": 2814,
      "kmi": 2815,
      "Ġnohy": 2816,
      "rÃ©": 2817,
      "sten": 2818,
      "Ġrobit": 2819,
      "ÃŃÅ¡": 2820,
      "chen": 2821,
      "ĠJo": 2822,
      "Ġpolitici": 2823,
      "Ġbody": 2824,
      "ĠkterÃ©": 2825,
      "rit": 2826,
      "ÅĪovaÅ¥": 2827,
      "ĠsÃŃl": 2828,
      "Ġkilometrov": 2829,
      "uk": 2830,
      "ĠvoliÅ¥": 2831,
      "Ġkor": 2832,
      "ĠnaÅ¡li": 2833,
      "Ġkli": 2834,
      "ĠLo": 2835,
      "Ġspor": 2836,
      "lebo": 2837,
      "ĠSNS": 2838,
      "ela": 2839,
      "tÃŃvny": 2840,
      "Ġcest": 2841,
      "Ġhat": 2842,
      "kÃº": 2843,
      "Ġstar": 2844,
      "ĠEUR": 2845,
      "Ġcien": 2846,
      "anÃº": 2847,
      "Ġolej": 2848,
      "Ġzla": 2849,
      "ovane": 2850,
      "Ġvra": 2851,
      "Ġdiel": 2852,
      "aku": 2853,
      "ĠprinÃ¡Å¡a": 2854,
      "lovej": 2855,
      "Ġmajetku": 2856,
      "ee": 2857,
      "Ġhovoria": 2858,
      "tre": 2859,
      "Ġmate": 2860,
      "zujÃº": 2861,
      "nikov": 2862,
      "ĠpriÅ¡la": 2863,
      "Ġrodinu": 2864,
      "ĠmomentÃ¡lne": 2865,
      "oru": 2866,
      "nenÃ½": 2867,
      "Ġsvetovej": 2868,
      "Ä½udia": 2869,
      "Hoci": 2870,
      "Ġchyba": 2871,
      "net": 2872,
      "gt": 2873,
      "ĠkorÃºn": 2874,
      "teÄ¾a": 2875,
      "PretoÅ¾e": 2876,
      "lon": 2877,
      "Ġkra": 2878,
      "IT": 2879,
      "rg": 2880,
      "Ġhlad": 2881,
      "tit": 2882,
      "Ġinej": 2883,
      "kuje": 2884,
      "dla": 2885,
      "Ġstretnutie": 2886,
      "ĠvÃ¡Å¡ho": 2887,
      "Ġnejako": 2888,
      "ĠmajÃŃ": 2889,
      "ĠCon": 2890,
      "ĠstÃ¡va": 2891,
      "EL": 2892,
      "PrÃŃ": 2893,
      "oro": 2894,
      "Ġnever": 2895,
      "mou": 2896,
      "fu": 2897,
      "Ġhranice": 2898,
      "lem": 2899,
      "fer": 2900,
      "zka": 2901,
      "Ġinternet": 2902,
      "mm": 2903,
      "Ġtvoje": 2904,
      "ĠÅ¡tÃ¡ty": 2905,
      "ces": 2906,
      "Ġvlani": 2907,
      "Ġparlament": 2908,
      "Ġzmene": 2909,
      "Ġpov": 2910,
      "ung": 2911,
      "ĠzaujÃŃmavÃ©": 2912,
      "Ġsind": 2913,
      "lis": 2914,
      "ĠdieÅ¥aÅ¥a": 2915,
      "ĠrodiÄįia": 2916,
      "Pro": 2917,
      "lim": 2918,
      "Ġnemala": 2919,
      "lek": 2920,
      "tin": 2921,
      "Ġmojich": 2922,
      "ĠdruhÃ©": 2923,
      "Ġstrach": 2924,
      "Ġbar": 2925,
      "Ġneroz": 2926,
      "Ġmimoriadne": 2927,
      "gan": 2928,
      "ĠvzhÄ¾adom": 2929,
      "Ġzak": 2930,
      "ĠkedykoÄ¾vek": 2931,
      "vod": 2932,
      "ĠpovinnÃ½": 2933,
      "Ġpredsedu": 2934,
      "Mal": 2935,
      "Ã¡cie": 2936,
      "ĠokamÅ¾ite": 2937,
      "cs": 2938,
      "Ġcentre": 2939,
      "ĠsekÃºnd": 2940,
      "Ġproduktov": 2941,
      "ĠPan": 2942,
      "Ġlepsie": 2943,
      "tori": 2944,
      "rej": 2945,
      "Ġfilmu": 2946,
      "ĠstrÃ¡nka": 2947,
      "ĠBA": 2948,
      "ĠÄıaleko": 2949,
      "ĠotÃ¡zka": 2950,
      "line": 2951,
      "ĠÅ¡tÃ¡tnej": 2952,
      "telia": 2953,
      "ĠkonkrÃ©tne": 2954,
      "Ġverejnej": 2955,
      "Ġadresu": 2956,
      "ĠpracovnÃ½ch": 2957,
      "ĠTur": 2958,
      "vit": 2959,
      "Tam": 2960,
      "ĠstÃ¡": 2961,
      "inou": 2962,
      "lenÃŃ": 2963,
      "Ġpriestoru": 2964,
      "Ġviacero": 2965,
      "ĠSmeru": 2966,
      "ickÃ½": 2967,
      "Ġzariadenie": 2968,
      "Å¾il": 2969,
      "ien": 2970,
      "Ġzdravie": 2971,
      "Sme": 2972,
      "enu": 2973,
      "Ã¡ri": 2974,
      "par": 2975,
      "nutÃ©": 2976,
      "Ġpohode": 2977,
      "Ġfoto": 2978,
      "Ġrozhodli": 2979,
      "vin": 2980,
      "Ġsou": 2981,
      "dol": 2982,
      "ĠKar": 2983,
      "Ġpsycho": 2984,
      "Ġ00": 2985,
      "ĠÄįiÅ¾e": 2986,
      "dam": 2987,
      "Ġpovie": 2988,
      "ĠodpoveÄı": 2989,
      "lar": 2990,
      "Ġchlad": 2991,
      "ĠpomÃ´Å¾e": 2992,
      "ĠdÃ´vodov": 2993,
      "Ġinde": 2994,
      "Ġspoj": 2995,
      "Ġvlast": 2996,
      "Ġvsetci": 2997,
      "Te": 2998,
      "ĠzaÄįiatkom": 2999,
      "Ġun": 3000,
      "ĠzahraniÄįÃŃ": 3001,
      "Ġiste": 3002,
      "ĠvzÅ¥ahu": 3003,
      "sel": 3004,
      "Ġles": 3005,
      "Ġinfo": 3006,
      "vaju": 3007,
      "ĠTomÃ¡Å¡": 3008,
      "ĠzdÃ¡": 3009,
      "sed": 3010,
      "jÃºca": 3011,
      "zit": 3012,
      "ĠpohÄ¾adu": 3013,
      "vr": 3014,
      "Ġwird": 3015,
      "ĠplÃ¡": 3016,
      "ĠRuska": 3017,
      "90": 3018,
      "Ġzrazu": 3019,
      "ĠplatiÅ¥": 3020,
      "Ġstretnutia": 3021,
      "ĠbudeÅ¡": 3022,
      "ĠVÃ½": 3023,
      "ĠzÃ¡kaz": 3024,
      "ĠkrÃ¡": 3025,
      "Ġponuky": 3026,
      "ĠradosÅ¥": 3027,
      "Ġpride": 3028,
      "ÅĪou": 3029,
      "ĠÄ¾uÄımi": 3030,
      "Ġposlanci": 3031,
      "ĠvÃ¡": 3032,
      "ciÃ¡ch": 3033,
      "Ġnemam": 3034,
      "Ġprospech": 3035,
      "ĠSPD": 3036,
      "ÄĮi": 3037,
      "Å¡ky": 3038,
      "NA": 3039,
      "ĠGe": 3040,
      "ovy": 3041,
      "nejÅ¡ia": 3042,
      "Ġinformoval": 3043,
      "des": 3044,
      "Ġhere": 3045,
      "covÃ¡": 3046,
      "tiv": 3047,
      "Ġsv": 3048,
      "iem": 3049,
      "ĠkÃº": 3050,
      "nek": 3051,
      "bÃ¡": 3052,
      "ĠlÃ¡tky": 3053,
      "ĠvzÅ¥ahy": 3054,
      "ĠCar": 3055,
      "Ġodpor": 3056,
      "Ġzisk": 3057,
      "alne": 3058,
      "ĠAko": 3059,
      "ĠprostredÃŃ": 3060,
      "ĠAnd": 3061,
      "Ġnechcem": 3062,
      "ON": 3063,
      "ĠdlhÅ¡ie": 3064,
      "ĠcelÃ¡": 3065,
      "ĠprÃŃleÅ¾itosti": 3066,
      "Ġtebou": 3067,
      "toval": 3068,
      "bil": 3069,
      "ĠÅ¡peciÃ¡lne": 3070,
      "Ġcelkovo": 3071,
      "Ġget": 3072,
      "Ġ64": 3073,
      "Ġpou": 3074,
      "ada": 3075,
      "Ġpodporuje": 3076,
      "Ġzasa": 3077,
      "SpoloÄįnosÅ¥": 3078,
      "Ġplne": 3079,
      "Ġknow": 3080,
      "stat": 3081,
      "ĠMy": 3082,
      "Treba": 3083,
      "ĠvidÃŃm": 3084,
      "Ġpl": 3085,
      "ĠFi": 3086,
      "ĠÅ¾iakov": 3087,
      "kÃ¡r": 3088,
      "Ġstarostlivosti": 3089,
      "Ġhodnotu": 3090,
      "ovateÄ¾": 3091,
      "Ġktora": 3092,
      "ĠdajÃº": 3093,
      "ĠVe": 3094,
      "ĠkterÃ½": 3095,
      "lat": 3096,
      "ĠtrvÃ¡": 3097,
      "Ġchlap": 3098,
      "ĠÄįoho": 3099,
      "23": 3100,
      "nutia": 3101,
      "ĠnejakÃº": 3102,
      "ĠvÃ½roby": 3103,
      "Ġhrad": 3104,
      "ĠNemecku": 3105,
      "log": 3106,
      "ÄįnÃ½mi": 3107,
      "ĠdobrÃ¡": 3108,
      "Å¡iÅ¥": 3109,
      "ĠurÄįenÃ©": 3110,
      "tÄĽ": 3111,
      "ĠNi": 3112,
      "Ġstat": 3113,
      "lovÃ½": 3114,
      "vaj": 3115,
      "Ġparlamente": 3116,
      "zali": 3117,
      "Ġset": 3118,
      "kaÅ¥": 3119,
      "Be": 3120,
      "Ġisto": 3121,
      "ĠFC": 3122,
      "noch": 3123,
      "ĠsieÅ¥": 3124,
      "ĠznÃ¡my": 3125,
      "Ġstr": 3126,
      "Ġnos": 3127,
      "ciami": 3128,
      "ĠBer": 3129,
      "ĠnÄĽkdo": 3130,
      "mar": 3131,
      "hou": 3132,
      "tik": 3133,
      "ĠvhodnÃ½": 3134,
      "Ġkomisie": 3135,
      "ÄįÃŃk": 3136,
      "ĠniÅ¾Å¡ie": 3137,
      "vanÃ©": 3138,
      "ĠpÃ¡Äįi": 3139,
      "Ġzap": 3140,
      "ĠvlastnÃ½ch": 3141,
      "Ġnavrh": 3142,
      "ĠagentÃºry": 3143,
      "stie": 3144,
      "lovi": 3145,
      "Ġhis": 3146,
      "Ġsud": 3147,
      "ĠmÃ©diÃ¡": 3148,
      "taÅ¥": 3149,
      "Ġformou": 3150,
      "VÅ¡etci": 3151,
      "Ġvodou": 3152,
      "tickÃ©ho": 3153,
      "Ġposlednej": 3154,
      "Ġzad": 3155,
      "ĠpochÃ¡dza": 3156,
      "kali": 3157,
      "ĠpripomÃŃna": 3158,
      "Kde": 3159,
      "ĠbezpeÄįnosÅ¥": 3160,
      "lenÃ½": 3161,
      "ning": 3162,
      "Ġpodiel": 3163,
      "zem": 3164,
      "ID": 3165,
      "Ġalbum": 3166,
      "Ġplay": 3167,
      "Ġprostriedky": 3168,
      "Ġdra": 3169,
      "Ġtime": 3170,
      "Peter": 3171,
      "vor": 3172,
      "ĠchceÅ¡": 3173,
      "Ġvr": 3174,
      "ĠvlastnÃŃ": 3175,
      "ĠÅ¡kola": 3176,
      "Ġnetreba": 3177,
      "daÅ¥": 3178,
      "ĠTO": 3179,
      "nutÃ½": 3180,
      "ĠÃºÄįely": 3181,
      "Ġet": 3182,
      "Ġmoju": 3183,
      "ĠFor": 3184,
      "ĠstarostlivosÅ¥": 3185,
      "Ġstali": 3186,
      "Ġnevedia": 3187,
      "Ġstrednej": 3188,
      "ĠrozpoÄįtu": 3189,
      "ĠgÃ³l": 3190,
      "ĠposlednÃ½": 3191,
      "70": 3192,
      "ĠzostÃ¡va": 3193,
      "VÅ¾dy": 3194,
      "Ġsilu": 3195,
      ",.": 3196,
      "Ġdruh": 3197,
      "valo": 3198,
      "Ġnesmie": 3199,
      "art": 3200,
      "lila": 3201,
      "ĠskonÄįil": 3202,
      "ĠpÅĻÃŃ": 3203,
      "ĠpÃŃ": 3204,
      "Ġhovoril": 3205,
      "ĠNÃ¡": 3206,
      "ĠSan": 3207,
      "ĠakÃº": 3208,
      "Ġprakticky": 3209,
      "dal": 3210,
      "ickej": 3211,
      "Ġml": 3212,
      "ĠzodpovednosÅ¥": 3213,
      "au": 3214,
      "ĠAndrej": 3215,
      "Ġmusi": 3216,
      "stri": 3217,
      "ĠSK": 3218,
      "ĠÄįlenom": 3219,
      "Ġzajtra": 3220,
      "ĠPi": 3221,
      "Ġautomaticky": 3222,
      "ĠÅ¾ivotnÃ©ho": 3223,
      "ovia": 3224,
      "Ġkrvi": 3225,
      "Ġsy": 3226,
      "kaz": 3227,
      "ial": 3228,
      "Ġcele": 3229,
      "ĠvenovaÅ¥": 3230,
      "Ä¾u": 3231,
      "nal": 3232,
      "vosÅ¥": 3233,
      "ĠpoÅ¾iadavky": 3234,
      "ĠprehÄ¾ad": 3235,
      "eli": 3236,
      "hl": 3237,
      "ĠveÄ¾kej": 3238,
      "taj": 3239,
      "ros": 3240,
      "tan": 3241,
      "Ġvedenie": 3242,
      "ĠÃºÄįasÅ¥": 3243,
      "vil": 3244,
      "ĠchÃ½ba": 3245,
      "vet": 3246,
      "ĠÅ¡kolstva": 3247,
      "Ġgraf": 3248,
      "Ġpriprav": 3249,
      "loch": 3250,
      "Äįkami": 3251,
      "ĠÃºspech": 3252,
      "Å¡li": 3253,
      "ach": 3254,
      "ĠmuÅ¾i": 3255,
      "Ġdia": 3256,
      "ĠvoliÄįov": 3257,
      "las": 3258,
      "Ġblog": 3259,
      "ĠSA": 3260,
      "ĠvÃ¤ÄįÅ¡ie": 3261,
      "Ġmierne": 3262,
      "Ġ75": 3263,
      "Ġres": 3264,
      "ĠblÃŃzkosti": 3265,
      "Ġvar": 3266,
      "tala": 3267,
      "Ġobchodu": 3268,
      "Ġ400": 3269,
      "Ġpolitika": 3270,
      "bili": 3271,
      "ase": 3272,
      "vanÃŃm": 3273,
      "Ġ2002": 3274,
      "ĠvÃ½robu": 3275,
      "Ġaus": 3276,
      "Martin": 3277,
      "ĠvÃ½raz": 3278,
      "Ġformu": 3279,
      "Ġdoch": 3280,
      "ĠnÃ¡hodou": 3281,
      "Ġrobil": 3282,
      "ĠPR": 3283,
      "Ġsrdce": 3284,
      "Ġruku": 3285,
      "Ġ2003": 3286,
      "Ġkrat": 3287,
      "dlo": 3288,
      "rna": 3289,
      "ĠKiska": 3290,
      "Ġdohody": 3291,
      "Ġnemocnice": 3292,
      "ĠVal": 3293,
      "45": 3294,
      "Ġpartner": 3295,
      "Ġplo": 3296,
      "alu": 3297,
      "Ġsklad": 3298,
      "tive": 3299,
      "ĠRoz": 3300,
      "ĠniektorÃŃ": 3301,
      "Ġtop": 3302,
      "torom": 3303,
      "ĠdlhÃ©": 3304,
      "Ġzmluvu": 3305,
      "Ġpiatich": 3306,
      "Ġkus": 3307,
      "Ġpara": 3308,
      "ĠtakÃ½to": 3309,
      "Ġvojakov": 3310,
      "Ġvozidla": 3311,
      "ĠzÃ¡kladnÃ½ch": 3312,
      "Ġad": 3313,
      "Ġjar": 3314,
      "MÃ¡me": 3315,
      "Ġcentrum": 3316,
      "Ġ01": 3317,
      "Ġoff": 3318,
      "Å¡ÃŃmi": 3319,
      "Ġzne": 3320,
      "Ġizby": 3321,
      "ticky": 3322,
      "Ġodo": 3323,
      "EM": 3324,
      "Ġdokument": 3325,
      "Ġsvojmu": 3326,
      "ĠvÃ½skum": 3327,
      "ĠPer": 3328,
      "Ġpreh": 3329,
      "stami": 3330,
      "Ġrozsahu": 3331,
      "PÃ¡n": 3332,
      "Ġpredpisov": 3333,
      "ĠzabezpeÄįiÅ¥": 3334,
      "Ġzhruba": 3335,
      "Ġriad": 3336,
      "ĠzÃ¡kladnej": 3337,
      "iac": 3338,
      "ĠveÄ¾kÃ½ch": 3339,
      "ĠpremiÃ©ra": 3340,
      "ang": 3341,
      "Ġvedeli": 3342,
      "Bratislava": 3343,
      "bli": 3344,
      "ĠdodÃ¡va": 3345,
      "ĠtroÅ¡ku": 3346,
      "Ġmiestach": 3347,
      "ĠzÃ¡kladnÃ©": 3348,
      "Ġeu": 3349,
      "Ġnovom": 3350,
      "torov": 3351,
      "ĠRusku": 3352,
      "ki": 3353,
      "Ã³nu": 3354,
      "Ġpes": 3355,
      "nic": 3356,
      "ĠspoloÄįnÃ©": 3357,
      "ĠnÃ¡pad": 3358,
      "Ġzi": 3359,
      "Ġrodine": 3360,
      "Ġzdroje": 3361,
      "ĠmnohÃ©": 3362,
      "zor": 3363,
      "ĠvÄĽ": 3364,
      "Ġneda": 3365,
      "OL": 3366,
      "ĠÄįele": 3367,
      "voj": 3368,
      "kovo": 3369,
      "Ãī": 3370,
      "UrÄįite": 3371,
      "Ġvozidiel": 3372,
      "ĠÅ¡tudentov": 3373,
      "Ġotvor": 3374,
      "Nikdy": 3375,
      "Ġvami": 3376,
      "Å¡u": 3377,
      "stal": 3378,
      "ĠzÃ¡kaznÃŃkov": 3379,
      "Ġmed": 3380,
      "rek": 3381,
      "teÄ¾ov": 3382,
      "Ġprotest": 3383,
      "bat": 3384,
      "ĠvytvÃ¡ra": 3385,
      "ĠvÅ¡e": 3386,
      "Ġkontrolu": 3387,
      "Ġthem": 3388,
      "Ã³ny": 3389,
      "Ġ38": 3390,
      "ĠBla": 3391,
      "Ġniekomu": 3392,
      "aly": 3393,
      "Ġhre": 3394,
      "Ġneob": 3395,
      "Jeden": 3396,
      "Å¾ila": 3397,
      "jÃºcim": 3398,
      "led": 3399,
      "Ġvsetky": 3400,
      "ĠvlastnÃ½": 3401,
      "ĠKri": 3402,
      "Ġprostriedkov": 3403,
      "Ġobjav": 3404,
      "jeme": 3405,
      "Ġbudovy": 3406,
      "ĠvlastnÃº": 3407,
      "MÃ´Å¾ete": 3408,
      "eb": 3409,
      "22": 3410,
      "Ġfunkciu": 3411,
      "ĠtÃ½Å¾dÅĪa": 3412,
      "ĠÃºtoku": 3413,
      "Äįkov": 3414,
      "ĠsprÃ¡v": 3415,
      "Ġvyz": 3416,
      "Ġknihu": 3417,
      "Å¡ov": 3418,
      "ĠpolÃŃcie": 3419,
      "Ġsvetlo": 3420,
      "skÃ©mu": 3421,
      "Ġkg": 3422,
      "stvom": 3423,
      "Ġrie": 3424,
      "NiektorÃ©": 3425,
      "nejÅ¡ÃŃm": 3426,
      "Ġcely": 3427,
      "Ġnazor": 3428,
      "ĠpravidlÃ¡": 3429,
      "ĠVaÅ¡e": 3430,
      "NavyÅ¡e": 3431,
      "Ġji": 3432,
      "ĠhrÃ¡Äį": 3433,
      "nech": 3434,
      "Ġstroj": 3435,
      "Å¡enie": 3436,
      "Ã¡lnom": 3437,
      "ara": 3438,
      "Äįenia": 3439,
      "ĠoblasÅ¥": 3440,
      "ĠvychÃ¡dza": 3441,
      "Ġtlak": 3442,
      "Äº": 3443,
      "lovÃ½ch": 3444,
      "Å¾iÅ¥": 3445,
      "ĠsituÃ¡cii": 3446,
      "sion": 3447,
      "Ġkomu": 3448,
      "Ġvymen": 3449,
      "Ġvonku": 3450,
      "ĠsociÃ¡lne": 3451,
      "Ġthere": 3452,
      "ĠtakÃº": 3453,
      "Ġporad": 3454,
      "tis": 3455,
      "nilo": 3456,
      "rel": 3457,
      "ĠSte": 3458,
      "stickÃ½": 3459,
      "spe": 3460,
      "ÄįenÃŃ": 3461,
      "dov": 3462,
      "ujÃŃ": 3463,
      "ĠzÃ¡ver": 3464,
      "Ġkrajinu": 3465,
      "kej": 3466,
      "ĠUK": 3467,
      "Bude": 3468,
      "vis": 3469,
      "Å¡ku": 3470,
      "ĠBen": 3471,
      "ĠeurÃ³pskych": 3472,
      "nenÃŃ": 3473,
      "ĠWe": 3474,
      "Ġkniha": 3475,
      "ĠbÃ½valÃ½": 3476,
      "Å¡la": 3477,
      "Ġmajstrov": 3478,
      "ĠvlÃ¡du": 3479,
      "Ġboja": 3480,
      "Ġinter": 3481,
      "ĠtelefÃ³n": 3482,
      "ĠpÃ´vodne": 3483,
      "Ġinformovala": 3484,
      "ĠSlovÃ¡kov": 3485,
      "aby": 3486,
      "Ġtvoria": 3487,
      "Ġpovinnosti": 3488,
      "ĠMan": 3489,
      "Ġmieru": 3490,
      "ĠNie": 3491,
      "Ġdaj": 3492,
      "vanÃ½": 3493,
      "ĠNÃ¡rodnej": 3494,
      "ĠmanÅ¾el": 3495,
      "ruje": 3496,
      "Ġkonanie": 3497,
      "Ġ63": 3498,
      "Ġligy": 3499,
      "Ġpolitikov": 3500,
      "ĠhÄ¾adaÅ¥": 3501,
      "ĠtretÃŃ": 3502,
      "PS": 3503,
      "ĠoficiÃ¡lne": 3504,
      "Ġpad": 3505,
      "Takto": 3506,
      "Ġtouto": 3507,
      "ĠvysokÃ©": 3508,
      "ake": 3509,
      "Ä¾uje": 3510,
      "Ġjednotky": 3511,
      "Ġwir": 3512,
      "ĠostatnÃŃ": 3513,
      "Ġtext": 3514,
      "mil": 3515,
      "ĠÃºdajne": 3516,
      "Ġvystav": 3517,
      "ĠprotoÅ¾e": 3518,
      "Ġbolesti": 3519,
      "Ġpodujatia": 3520,
      "Ġpozi": 3521,
      "Ġkedysi": 3522,
      "ita": 3523,
      "ĠmuÅ¾a": 3524,
      "Ġmusela": 3525,
      "Å¡il": 3526,
      "ĠtvÃ¡r": 3527,
      "ĠpozitÃŃvne": 3528,
      "tika": 3529,
      "set": 3530,
      "Ġjedlo": 3531,
      "ĠmateriÃ¡lov": 3532,
      "Ġpolovici": 3533,
      "sad": 3534,
      "Ã³nov": 3535,
      "ĠAP": 3536,
      "q": 3537,
      "Ġ42": 3538,
      "ĠbÃ½va": 3539,
      "Die": 3540,
      "Ġfiriem": 3541,
      "Ġtakisto": 3542,
      "Ġpolitike": 3543,
      "ĠzvÃ½Å¡enie": 3544,
      "stre": 3545,
      "ĠchvÃŃli": 3546,
      "ĠHer": 3547,
      "ĠproÄį": 3548,
      "var": 3549,
      "ĠmalÃ½ch": 3550,
      "Ġzm": 3551,
      "iu": 3552,
      "pou": 3553,
      "ĠviesÅ¥": 3554,
      "ZatiaÄ¾": 3555,
      "Ġochrane": 3556,
      "ĠdruhÃ¡": 3557,
      "Ġktori": 3558,
      "ĠÅ¡tÃºdia": 3559,
      "eda": 3560,
      "Ġmake": 3561,
      "bel": 3562,
      "jÃºcej": 3563,
      "Ġsub": 3564,
      "IE": 3565,
      "Ġbanka": 3566,
      "Ġlove": 3567,
      "Ġprograme": 3568,
      "stvÃ¡": 3569,
      "BA": 3570,
      "Ġvybav": 3571,
      "Ġzmen": 3572,
      "ĠprÃŃspevok": 3573,
      "Ġnarod": 3574,
      "ĠStra": 3575,
      "Ġov": 3576,
      "Åķ": 3577,
      "Ġpovo": 3578,
      "ĠkategÃ³rii": 3579,
      "Ġbra": 3580,
      "Ġzabud": 3581,
      "Ġry": 3582,
      "Ġque": 3583,
      "nenÃ¡": 3584,
      "ĠSlovenskÃ¡": 3585,
      "Ġprodukt": 3586,
      "Sta": 3587,
      "ĠÄ¾ud": 3588,
      "dem": 3589,
      "ĠmnohÃŃ": 3590,
      "Ġzastav": 3591,
      "ĠbezpeÄįnosti": 3592,
      "Ġpat": 3593,
      "rovej": 3594,
      "ĠsledovaÅ¥": 3595,
      "Ġ1000": 3596,
      "Ġponuku": 3597,
      "ĠverejnÃ©ho": 3598,
      "ĠzruÅ¡iÅ¥": 3599,
      "Å¥a": 3600,
      "Ġposil": 3601,
      "ĠbudÃºci": 3602,
      "Ġmojom": 3603,
      "Ġvla": 3604,
      "Ġpolitiku": 3605,
      "ĠkaÅ¾dÃ¡": 3606,
      "Ġven": 3607,
      "jÃºceho": 3608,
      "ĠÅ¡tÃ½l": 3609,
      "Ġnato": 3610,
      "ĠzÃŃskala": 3611,
      "Ġvet": 3612,
      "ĠmÅ¯Å¾e": 3613,
      "Ġinternete": 3614,
      "stickÃ¡": 3615,
      "ĠobjednÃ¡vky": 3616,
      "ĠnechaÅ¥": 3617,
      "ĠnÃ¡zory": 3618,
      "pol": 3619,
      "Ġbyla": 3620,
      "ĠÄįasom": 3621,
      "Ġvola": 3622,
      "Ġboji": 3623,
      "Ġ43": 3624,
      "Ġjazyk": 3625,
      "ĠmÃ©diÃŃ": 3626,
      "ĠBRATISLAVA": 3627,
      "ĠzaÄįalo": 3628,
      "hen": 3629,
      "Ġvyzera": 3630,
      "anÃ©ho": 3631,
      "Ġwerden": 3632,
      "Ġkokot": 3633,
      "ĠlidÃŃ": 3634,
      "ĠstrÃ¡nku": 3635,
      "Ġhlasov": 3636,
      "ĠHu": 3637,
      "ĠvÃ¤ÄįÅ¡ÃŃ": 3638,
      "Me": 3639,
      "Ġwould": 3640,
      "Ġrozhodla": 3641,
      "ĠiÅ¡lo": 3642,
      "ĠaktuÃ¡lne": 3643,
      "ĠnedÃ¡vno": 3644,
      "Ġhokej": 3645,
      "sme": 3646,
      "ĠvaÅ¡ich": 3647,
      "ĠnachÃ¡dzajÃº": 3648,
      "?.": 3649,
      "ĠlÃ¡sky": 3650,
      "ĠpolitickÃ©": 3651,
      "ckÃ½m": 3652,
      "nami": 3653,
      "ĠdeÅ¥om": 3654,
      "Viem": 3655,
      "ĠzdravotnÃŃctva": 3656,
      "ĠpovinnosÅ¥": 3657,
      "ĠvÄįera": 3658,
      "Ġslobody": 3659,
      "ickÃ¡": 3660,
      "Äįu": 3661,
      "Ġdlhodobo": 3662,
      "ĠPetra": 3663,
      "ĠtakÃ½chto": 3664,
      "ben": 3665,
      "ovanÃº": 3666,
      "ĠÄįoraz": 3667,
      "Ġvyhral": 3668,
      "ĠrovnakÃ©": 3669,
      "Ġrozhod": 3670,
      "Ġmehr": 3671,
      "Ġky": 3672,
      "Ã¡ly": 3673,
      "ĠveÄ¾kÃ½m": 3674,
      "ĠsÃºÅ¥aÅ¾i": 3675,
      "Ġmod": 3676,
      "losti": 3677,
      "ned": 3678,
      "ĠurÄįenÃ½": 3679,
      "Ġ55": 3680,
      "ĠÄįlenovia": 3681,
      "ĠpriateÄ¾": 3682,
      "Ġmiestnosti": 3683,
      "tri": 3684,
      "ĠprÃŃrody": 3685,
      "Rovnako": 3686,
      "Ġodkaz": 3687,
      "Ġnastav": 3688,
      "ĠvÃŃÅ¥az": 3689,
      "ĠtÅĻeba": 3690,
      "Si": 3691,
      "ET": 3692,
      "Chcem": 3693,
      "ĠvÃ½sledkov": 3694,
      "ĠprvÃº": 3695,
      "str": 3696,
      "dajÃº": 3697,
      "zov": 3698,
      "chom": 3699,
      "AM": 3700,
      "ĠKoÅ¡iciach": 3701,
      "Mali": 3702,
      "Ġprebieha": 3703,
      "Ġvlastnosti": 3704,
      "Ġsil": 3705,
      "Ġriziko": 3706,
      "Ġzru": 3707,
      "pen": 3708,
      "ĠdomÃ¡cich": 3709,
      "ĠprÃŃjem": 3710,
      "Ġpredstav": 3711,
      "ĠHan": 3712,
      "dou": 3713,
      "mne": 3714,
      "Ġradsej": 3715,
      "nÃŃku": 3716,
      "ĠÃºÄįet": 3717,
      "toto": 3718,
      "Ġrokom": 3719,
      "ĠpriÅ¡lo": 3720,
      "ĠmÃ´Å¾eÅ¡": 3721,
      "ĠprÃŃleÅ¾itosÅ¥": 3722,
      "sila": 3723,
      "Ġfaj": 3724,
      "sili": 3725,
      "Ġ37": 3726,
      "Ġservis": 3727,
      "ĠzÃ¡pad": 3728,
      "koÄ¾vek": 3729,
      "Ġnapad": 3730,
      "tovÃ½ch": 3731,
      "ĠplnÃ©": 3732,
      "kem": 3733,
      "Ġvopred": 3734,
      "enka": 3735,
      "Ġfar": 3736,
      "ĠPS": 3737,
      "hÄ¾ad": 3738,
      "Ã¡lnÃŃ": 3739,
      "Ġimho": 3740,
      "ice": 3741,
      "Ġskla": 3742,
      "Ġrov": 3743,
      "Ä½": 3744,
      "Ġdoj": 3745,
      "Ġser": 3746,
      "ĠLen": 3747,
      "Ġdruhu": 3748,
      "Ġrobi": 3749,
      "ĠzÃ¡klad": 3750,
      "Ġskupine": 3751,
      "Ġhaben": 3752,
      "nÃŃch": 3753,
      "ĠMat": 3754,
      "rati": 3755,
      "Ġmie": 3756,
      "ĠvlÃ¡de": 3757,
      "ĠMilan": 3758,
      "rus": 3759,
      "bud": 3760,
      "Ġzivot": 3761,
      "ĠnajvÃ¤ÄįÅ¡ÃŃ": 3762,
      "ĠRi": 3763,
      "ĠpoÄį": 3764,
      "IL": 3765,
      "int": 3766,
      "zovat": 3767,
      "diel": 3768,
      "ĠrÃ¡": 3769,
      "ĠÅ¾iadnu": 3770,
      "tions": 3771,
      "Ġy": 3772,
      "ĠzÃŃskali": 3773,
      "Å¾u": 3774,
      "ĠlÃ¡tok": 3775,
      "Ġnaz": 3776,
      "ĠpolitickÃ½ch": 3777,
      "vili": 3778,
      "ĠmaximÃ¡lne": 3779,
      "Ġvsak": 3780,
      "ĠMil": 3781,
      "dob": 3782,
      "Spolu": 3783,
      "Ġradu": 3784,
      "ovÃ½mi": 3785,
      "dom": 3786,
      "eru": 3787,
      "Ġzni": 3788,
      "ĠKDH": 3789,
      "PoÄįet": 3790,
      "Ġpopis": 3791,
      "Ġbodu": 3792,
      "ĠÅ¾iadna": 3793,
      "zala": 3794,
      "Ġtuto": 3795,
      "zku": 3796,
      "Ġworld": 3797,
      "ret": 3798,
      "Ġprojektov": 3799,
      "ĠTom": 3800,
      "SK": 3801,
      "Ġskon": 3802,
      "Ġobaja": 3803,
      "ĠkvalitnÃ©": 3804,
      "ĠslovenskÃ©": 3805,
      "ĠÄįÃŃsla": 3806,
      "ĠnovÃ½m": 3807,
      "ĠvieÅ¡": 3808,
      "EC": 3809,
      "Ġmama": 3810,
      "Ġ48": 3811,
      "Ġvysokej": 3812,
      "OM": 3813,
      "Ġpodmienkach": 3814,
      "Ġrastu": 3815,
      "ĠfinanÄįnÃ©": 3816,
      "ĠPra": 3817,
      "Pra": 3818,
      "ĠTrump": 3819,
      "ĠBanskej": 3820,
      "Ġtla": 3821,
      "ovÃ¡nÃŃ": 3822,
      "ĠzÃ¡pasu": 3823,
      "ari": 3824,
      "ovanÃ½m": 3825,
      "Ġned": 3826,
      "ÄįÃŃm": 3827,
      "ĠhlavnÃ©ho": 3828,
      "znÃ¡": 3829,
      "ĠEuro": 3830,
      "Ġobsahu": 3831,
      "ĠdostatoÄįne": 3832,
      "ĠzÃ¡konov": 3833,
      "ĠJuraj": 3834,
      "Ġzmena": 3835,
      "Ġpodvod": 3836,
      "Ġur": 3837,
      "ĠvÃ¤ÄįÅ¡inu": 3838,
      "Ġval": 3839,
      "Ġpovedat": 3840,
      "ĠkteÅĻÃŃ": 3841,
      "ĠvÃ½robkov": 3842,
      "Ġwie": 3843,
      "ĠpreÄį": 3844,
      "ĠBohu": 3845,
      "ĠhrÃ¡Äįi": 3846,
      "sle": 3847,
      "ĠdokÃ¡Å¾u": 3848,
      "dej": 3849,
      "Ġneexistuje": 3850,
      "tujÃº": 3851,
      "ick": 3852,
      "Ġpok": 3853,
      "ĠdeÅ¥mi": 3854,
      "ves": 3855,
      "Ġtro": 3856,
      "AvÅ¡ak": 3857,
      "Ã¡ra": 3858,
      "ĠEl": 3859,
      "stickej": 3860,
      "vanÃ¡": 3861,
      "Ġriadne": 3862,
      "ĠrÃºk": 3863,
      "ĠverejnÃ½ch": 3864,
      "hnu": 3865,
      "nos": 3866,
      "ĠuskutoÄįnÃŃ": 3867,
      "ĠdomÃ¡ci": 3868,
      "Ġfe": 3869,
      "ĠnajvyÅ¡Å¡ej": 3870,
      "Ġdoslova": 3871,
      "Ġ44": 3872,
      "Ġvin": 3873,
      "ĠverejnosÅ¥": 3874,
      "ĠRobert": 3875,
      "Ġznie": 3876,
      "xu": 3877,
      "tat": 3878,
      "Ġdlh": 3879,
      "Ġparku": 3880,
      "Ġvol": 3881,
      "ĠAu": 3882,
      "fil": 3883,
      "ĠzÃ¡sob": 3884,
      "ĠnutnÃ©": 3885,
      "one": 3886,
      "KÃ½m": 3887,
      "dala": 3888,
      "ram": 3889,
      "ĠmoÅ¾nostÃŃ": 3890,
      "Ġdobry": 3891,
      "ĠsmrÅ¥": 3892,
      "Ġteplo": 3893,
      "ĠvÃŃÅ¥azstvo": 3894,
      "ĠmÃŃ": 3895,
      "Ġhovorca": 3896,
      "ĠkonaÅ¥": 3897,
      "cek": 3898,
      "pli": 3899,
      "tory": 3900,
      "Ġvideli": 3901,
      "Ġska": 3902,
      "Ġponuke": 3903,
      "Ġono": 3904,
      "dim": 3905,
      "ĠzvÃ½Å¡iÅ¥": 3906,
      "Ġukazuje": 3907,
      "ĠnaÅ¡iel": 3908,
      "Ġvzor": 3909,
      "tli": 3910,
      "zovali": 3911,
      "ĠmenÃŃ": 3912,
      "Ġudalosti": 3913,
      "Ġ46": 3914,
      "Ġschopnosti": 3915,
      "osÅ¥": 3916,
      "He": 3917,
      "Ġstoja": 3918,
      "Å¾ne": 3919,
      "ĠsprÃ¡ve": 3920,
      "ĠcÃŃtiÅ¥": 3921,
      "ĠPrÃŃ": 3922,
      "ĠtvorÃŃ": 3923,
      "Ta": 3924,
      "klad": 3925,
      "ĠSuper": 3926,
      "Ġdiela": 3927,
      "Ġsvie": 3928,
      "Ġfotografie": 3929,
      "ĠmiliÃ¡rd": 3930,
      "ĠzÃ¡konom": 3931,
      "ĠMal": 3932,
      "Äįie": 3933,
      "ÄįenÃ½": 3934,
      "Se": 3935,
      "ĠUS": 3936,
      "ĠspraviÅ¥": 3937,
      "ĠspojenÃ©": 3938,
      "ĠmladÃŃ": 3939,
      "tosti": 3940,
      "vosti": 3941,
      "Ġurobili": 3942,
      "gÃ¡": 3943,
      "zoval": 3944,
      "ĠinÃ½mi": 3945,
      "bit": 3946,
      "Ġtvor": 3947,
      "Ġposlednom": 3948,
      "Ġprav": 3949,
      "ĠFica": 3950,
      "teÄ¾nÃ¡": 3951,
      "ĠKor": 3952,
      "ĠvedenÃŃm": 3953,
      "Ġmatka": 3954,
      "ĠhistÃ³rii": 3955,
      "roval": 3956,
      "slav": 3957,
      "Ġpotvrdil": 3958,
      "Ġspol": 3959,
      "Ġsex": 3960,
      "ĠpÃŃsaÅ¥": 3961,
      "ĠkaÅ¾dÃ©mu": 3962,
      "ĠroÄįnÃŃk": 3963,
      "Å¡Å¥": 3964,
      "Ġkomisia": 3965,
      "StaÄįÃŃ": 3966,
      "ĠhostÃŃ": 3967,
      "que": 3968,
      "Ġprocesu": 3969,
      "Ġpotrebujete": 3970,
      "tÃŃvna": 3971,
      "ĠvedÄ¾a": 3972,
      "Ġmzdy": 3973,
      "Å¡ovÃ¡": 3974,
      "Ġdodnes": 3975,
      "Ġdruhov": 3976,
      "ÄįenÃ¡": 3977,
      "Ġchyby": 3978,
      "Ġzav": 3979,
      "ĠnormÃ¡lne": 3980,
      "Äįilo": 3981,
      "OD": 3982,
      "ĠnajlepÅ¡ÃŃch": 3983,
      "Ġnikdo": 3984,
      "ĠdruhÃº": 3985,
      "ĠSlovÃ¡ci": 3986,
      "Ġcirkev": 3987,
      "Boli": 3988,
      "ĠEx": 3989,
      "Ġ2001": 3990,
      "nenÃŃm": 3991,
      "ckÃº": 3992,
      "Ġpor": 3993,
      "dr": 3994,
      "Ġsice": 3995,
      "ĠpotrebujÃº": 3996,
      "Ġpredaja": 3997,
      "ĠÅ¾iadosti": 3998,
      "ĠlÃ¡": 3999,
      "Ġprejav": 4000,
      "ĠdneÅ¡nej": 4001,
      "paÅ¥": 4002,
      "Ġkontroly": 4003,
      "rav": 4004,
      "Ġvznikla": 4005,
      "ĠpÃ¡na": 4006,
      "Ġpsych": 4007,
      "ĠtÃ½": 4008,
      "ĠveÄ¾kosÅ¥": 4009,
      "ĠJÃ¡na": 4010,
      "ĠHam": 4011,
      "Ġac": 4012,
      "ĠoÄįakÃ¡va": 4013,
      "ĠCom": 4014,
      "tech": 4015,
      "Bo": 4016,
      "ĠzahraniÄįia": 4017,
      "ĠtÃ©mu": 4018,
      "Ġzvierat": 4019,
      "Ġtru": 4020,
      "Ġpostoj": 4021,
      "Ġrozvoja": 4022,
      "Ġhudby": 4023,
      "ĠÄĮesku": 4024,
      "mit": 4025,
      "ĠpeknÃ©": 4026,
      "bar": 4027,
      "ĠkategÃ³rie": 4028,
      "Ġnow": 4029,
      "ĠsvÃ©": 4030,
      "zii": 4031,
      "Ġkolko": 4032,
      "Ġmedi": 4033,
      "Mar": 4034,
      "ĠDPH": 4035,
      "Ġnevedel": 4036,
      "ĠrÃ½chlosÅ¥": 4037,
      "Ġstrom": 4038,
      "ĠPet": 4039,
      "Ġsna": 4040,
      "Ġmobil": 4041,
      "Ġpoch": 4042,
      "Ġkrv": 4043,
      "nan": 4044,
      "tovi": 4045,
      "kat": 4046,
      "Ġcvi": 4047,
      "Ġoce": 4048,
      "Ġdem": 4049,
      "vny": 4050,
      "ĠjednotlivÃ©": 4051,
      "ĠlÃ¡ska": 4052,
      "ĠÄįomu": 4053,
      "Ġab": 4054,
      "Ġargument": 4055,
      "mat": 4056,
      "ord": 4057,
      "Ġdob": 4058,
      "tol": 4059,
      "stne": 4060,
      "ĠTra": 4061,
      "Ġvyjadril": 4062,
      "nostÃŃ": 4063,
      "27": 4064,
      "ĠKra": 4065,
      "RE": 4066,
      "Ġwhen": 4067,
      "ĠmÄĽl": 4068,
      "cz": 4069,
      "Ġvode": 4070,
      "mes": 4071,
      "nen": 4072,
      "Ġrod": 4073,
      "ĠÄıalÅ¡iu": 4074,
      "ĠhorÅ¡ie": 4075,
      "ĠidÃº": 4076,
      "Äıte": 4077,
      "ĠAj": 4078,
      "ĠdestinÃ¡cii": 4079,
      "Ġdalej": 4080,
      "Ġdostatok": 4081,
      "hrad": 4082,
      "ĠznenÃŃ": 4083,
      "ley": 4084,
      "Ġdoba": 4085,
      "ĠtÃ½Å¾dÅĪov": 4086,
      "ĠkrÃ¡tko": 4087,
      "ĠRad": 4088,
      "Ġvznik": 4089,
      "zovanÃ©": 4090,
      "isko": 4091,
      "Ġvlasov": 4092,
      "Ġpacientov": 4093,
      "mail": 4094,
      "lich": 4095,
      "ĠHar": 4096,
      "ĠDan": 4097,
      "ĠPavol": 4098,
      "ĠÐ": 4099,
      "ĠAb": 4100,
      "ĠschopnosÅ¥": 4101,
      "alo": 4102,
      "ris": 4103,
      "Ġbytu": 4104,
      "ĠvÃ½robky": 4105,
      "eho": 4106,
      "ĠfinanÄįnÃ½ch": 4107,
      "sek": 4108,
      "osti": 4109,
      "ĠpouÅ¾ÃŃvajÃº": 4110,
      "novÃ©": 4111,
      "Ġpy": 4112,
      "ĠdvakrÃ¡t": 4113,
      "aa": 4114,
      "Ġwere": 4115,
      "ĠvÃ½boru": 4116,
      "ker": 4117,
      "rb": 4118,
      "ĠÄĮo": 4119,
      "26": 4120,
      "ĠuvoÄ¾": 4121,
      "TieÅ¾": 4122,
      "ĠroÄįne": 4123,
      "ĠRus": 4124,
      "ĠstarÃ©": 4125,
      "iach": 4126,
      "Slovensko": 4127,
      "ĠvÃ½bor": 4128,
      "cm": 4129,
      "ĠsnÃ¡Äı": 4130,
      "ĠveÄ¾kosti": 4131,
      "ĠvyuÅ¾ÃŃva": 4132,
      "ujeÅ¡": 4133,
      "Ġekonomiky": 4134,
      "21": 4135,
      "Vtedy": 4136,
      "cil": 4137,
      "ĠamerickÃ½ch": 4138,
      "ĠvÃ½Å¡ky": 4139,
      "Ġobnov": 4140,
      "ĠReuters": 4141,
      "Ġmost": 4142,
      "ude": 4143,
      "stickÃ½ch": 4144,
      "stnÃ©": 4145,
      "ĠpÃ´jde": 4146,
      "NO": 4147,
      "JÃ¡": 4148,
      "tovaÅ¥": 4149,
      "Ġverejne": 4150,
      "stou": 4151,
      "Ġhlavou": 4152,
      ".!": 4153,
      "leg": 4154,
      "ĠÃºzemia": 4155,
      "Ġenergiu": 4156,
      "Ġmenom": 4157,
      "ckych": 4158,
      "ĠGoogle": 4159,
      "ĠnemÃ´Å¾u": 4160,
      "Ġnek": 4161,
      "Ġ39": 4162,
      "Ġstop": 4163,
      "ĠhlavnÃ©": 4164,
      "Ġrobili": 4165,
      "ĠaÅ¥": 4166,
      "Ġzbrane": 4167,
      "Ġour": 4168,
      "ĠÅ¡Å¥astie": 4169,
      "ĠdobrÃº": 4170,
      "ovany": 4171,
      "spo": 4172,
      "Ved": 4173,
      "ĠnakoÄ¾ko": 4174,
      "ĠÃºlohy": 4175,
      "Ġvedenia": 4176,
      "ĠvyÅ¾aduje": 4177,
      "Ġautom": 4178,
      "rÃ½": 4179,
      "lok": 4180,
      "ĠÄ¾ad": 4181,
      "ĠdÄĽ": 4182,
      "ĠNem": 4183,
      "lez": 4184,
      "Ġokrese": 4185,
      "Ġfutbal": 4186,
      "rin": 4187,
      "ĠdennÃŃk": 4188,
      "Ġkedze": 4189,
      "pel": 4190,
      "siu": 4191,
      "tenie": 4192,
      "Ġpokud": 4193,
      "lÃ³": 4194,
      "ĠkampaÅĪ": 4195,
      "ĠÄ¾udskÃ©": 4196,
      "ĠBoha": 4197,
      "iet": 4198,
      "Ġpolitickej": 4199,
      "Å¡ti": 4200,
      "ovacÃŃ": 4201,
      "ses": 4202,
      "kÃ½m": 4203,
      "coch": 4204,
      "ĠsociÃ¡lnej": 4205,
      "ziu": 4206,
      "ĠpotravÃŃn": 4207,
      "Ġkou": 4208,
      "Ġpodob": 4209,
      "lÃ¡m": 4210,
      "Ġfilmov": 4211,
      "Ġbur": 4212,
      "ĠKr": 4213,
      "ĠbojovaÅ¥": 4214,
      "ind": 4215,
      "anÃ½m": 4216,
      "Ġ65": 4217,
      "Ġspravodlivosti": 4218,
      "Ġmesiacoch": 4219,
      "Da": 4220,
      "ĠÃºÄįinky": 4221,
      "kovanie": 4222,
      "Ġdopredu": 4223,
      "ĠvÃ½konu": 4224,
      "Ġbal": 4225,
      "StÃ¡le": 4226,
      "Ġnejakej": 4227,
      "35": 4228,
      "Ġrekord": 4229,
      "Ġpopri": 4230,
      "ld": 4231,
      "ĠpoznÃ¡": 4232,
      "TÃ½m": 4233,
      "ĠÃ¡ut": 4234,
      "ĠPÃ¡n": 4235,
      "ĠdaÅĪ": 4236,
      "inka": 4237,
      "ĠohÄ¾adom": 4238,
      "berg": 4239,
      "ĠNHL": 4240,
      "Å¡ili": 4241,
      "Ġprojekty": 4242,
      "rn": 4243,
      "Ġnikomu": 4244,
      "St": 4245,
      "Ġvl": 4246,
      "ĠÅ¾iadosÅ¥": 4247,
      "Ġprosim": 4248,
      "ĠspoluprÃ¡cu": 4249,
      "Ġvoj": 4250,
      "cny": 4251,
      "had": 4252,
      "Ġleto": 4253,
      "Ġjas": 4254,
      "tickÃº": 4255,
      "Ġpremen": 4256,
      "Ġpostav": 4257,
      "cat": 4258,
      "UR": 4259,
      "tÃŃvnej": 4260,
      "ĠÃºtok": 4261,
      "Ġtriedy": 4262,
      "Ã©n": 4263,
      "Ġvolit": 4264,
      "tilo": 4265,
      "ĠYou": 4266,
      "ĠvlÃ¡d": 4267,
      "Ġnov": 4268,
      "Ġlep": 4269,
      "ĠÅ¡ÃŃ": 4270,
      "mami": 4271,
      "sis": 4272,
      "los": 4273,
      "ĠvaÅ¡u": 4274,
      "ĠvnÃºtri": 4275,
      "Inak": 4276,
      "ĠvzdelÃ¡vania": 4277,
      "stickÃ©ho": 4278,
      "ii": 4279,
      "ĠDob": 4280,
      "sou": 4281,
      "Ġmoment": 4282,
      "ĠprvÃ½m": 4283,
      "Al": 4284,
      "Ġhow": 4285,
      "Ġkur": 4286,
      "ĠÄįakaÅ¥": 4287,
      "Ġinom": 4288,
      "Ġhlu": 4289,
      "ĠakÃ½m": 4290,
      "Ġzmien": 4291,
      "Ġzd": 4292,
      "ĠsÃºhlas": 4293,
      "ĠproblÃ©mom": 4294,
      "Ġsprav": 4295,
      "aky": 4296,
      "cin": 4297,
      "ĠakÃ¡": 4298,
      "ĠSlovenskÃ©ho": 4299,
      "Ġnemohol": 4300,
      "Ġzomrel": 4301,
      "ĠpracovnÃ©": 4302,
      "ĠMed": 4303,
      "biÅ¥": 4304,
      "Ġrepublike": 4305,
      "ĠKe": 4306,
      "ĠtrÃ©ning": 4307,
      "Ġzre": 4308,
      "stvu": 4309,
      "ĠnemÃ¡me": 4310,
      "ĠGra": 4311,
      "Zoznam": 4312,
      "Ġrokovania": 4313,
      "ĠsÃºÄįasne": 4314,
      "Ġnepod": 4315,
      "ĠDavid": 4316,
      "Ġosob": 4317,
      "Ġropy": 4318,
      "nout": 4319,
      "ĠÅ¾iada": 4320,
      "stan": 4321,
      "Ġmier": 4322,
      "Ä¾ov": 4323,
      "Dobre": 4324,
      "ĠvrÃ¡til": 4325,
      "naj": 4326,
      "stÃ©": 4327,
      "Ġkontakt": 4328,
      "ĠSam": 4329,
      "IM": 4330,
      "ĠpleÅ¥": 4331,
      "Ġita": 4332,
      "ĠPla": 4333,
      "nejsie": 4334,
      "ĠabsolÃºtne": 4335,
      "Ġpriemer": 4336,
      "enec": 4337,
      "ĠorganizÃ¡cia": 4338,
      "Ġsm": 4339,
      "Ġdebil": 4340,
      "rak": 4341,
      "ĠchodiÅ¥": 4342,
      "sÅ¥ou": 4343,
      "ĠdanÃŃ": 4344,
      "Ġotca": 4345,
      "inky": 4346,
      "ĠtÃ©": 4347,
      "99": 4348,
      "Ġwar": 4349,
      "Ġsunt": 4350,
      "Ġorganiz": 4351,
      "Ġindi": 4352,
      "ĠakciÃŃ": 4353,
      "Teda": 4354,
      "Ġquam": 4355,
      "ĠmÃ½": 4356,
      "ĠMiroslav": 4357,
      "Ġhla": 4358,
      "rala": 4359,
      "ĠÅ¡kolu": 4360,
      "Ġdosiahol": 4361,
      "Ġtvar": 4362,
      "ĠzÃ¡pasov": 4363,
      "adu": 4364,
      "sticky": 4365,
      "pas": 4366,
      "hat": 4367,
      "Ġdre": 4368,
      "ĠdÃ¡m": 4369,
      "vku": 4370,
      "ĠÅ¡tÃ¡tneho": 4371,
      "Ġcharakter": 4372,
      "Ġkraji": 4373,
      "Ġzatial": 4374,
      "Ġkre": 4375,
      "Ġdizajn": 4376,
      "tych": 4377,
      "ĠNR": 4378,
      "ĠamerickÃ½": 4379,
      "zaÅ¥": 4380,
      "Ġmagis": 4381,
      "Ã©ra": 4382,
      "IC": 4383,
      "Ġtesne": 4384,
      "Ġcirkvi": 4385,
      "tÃ¡r": 4386,
      "Ġsli": 4387,
      "Ġperea": 4388,
      "Ġvaleat": 4389,
      "Ġintelligenda": 4390,
      "ĠÄįer": 4391,
      "Ġplus": 4392,
      "Ġzdravia": 4393,
      "Ġbytov": 4394,
      "Ġspe": 4395,
      "Å¡iel": 4396,
      "ght": 4397,
      "koval": 4398,
      "ĠstarÃ¡": 4399,
      "kovom": 4400,
      "Ġake": 4401,
      "Ġnaraz": 4402,
      "Ġtohoto": 4403,
      "Ġruke": 4404,
      "ĠnapÃŃsaÅ¥": 4405,
      "ĠzÃ¡vere": 4406,
      "daj": 4407,
      "LE": 4408,
      "Ġvyk": 4409,
      "Ġprenos": 4410,
      "nÃŃky": 4411,
      "ĠZe": 4412,
      "ĠaplikÃ¡cie": 4413,
      "ĠmÃŃt": 4414,
      "Ġpsa": 4415,
      "Ġpraxi": 4416,
      "Ġpodpory": 4417,
      "ĠÄ¾udskÃ½ch": 4418,
      "VÃ¤ÄįÅ¡ina": 4419,
      "ĠCe": 4420,
      "ĠnemÃ¡te": 4421,
      "ĠdÃºfam": 4422,
      "ĠÄĮe": 4423,
      "ĠinÃº": 4424,
      "AT": 4425,
      "ĠinÃ¡": 4426,
      "Ġpodnik": 4427,
      "Ġtem": 4428,
      "Ġamerickej": 4429,
      "ĠKom": 4430,
      "Ġdej": 4431,
      "ÄįenÃŃm": 4432,
      "gar": 4433,
      "Ġhral": 4434,
      "Ġprogramov": 4435,
      "Ġmet": 4436,
      "ĠspÃ¡ja": 4437,
      "ĠtakÃ½ch": 4438,
      "lec": 4439,
      "ĠUÅ¾": 4440,
      "DS": 4441,
      "mali": 4442,
      "ĠskÃº": 4443,
      "Ġslobodu": 4444,
      "Ġeine": 4445,
      "ĠprÃ¡": 4446,
      "Ġdrog": 4447,
      "mÄĽ": 4448,
      "ĠdÃ¡t": 4449,
      "Ġaky": 4450,
      "ĠblÃŃzko": 4451,
      "ĠbliÅ¾Å¡ie": 4452,
      "Ġopa": 4453,
      "Ġpoist": 4454,
      "nete": 4455,
      "tÃŃm": 4456,
      "ĠzÃ¡kony": 4457,
      "ĠPred": 4458,
      "Ġciest": 4459,
      "ĠMc": 4460,
      "Ġtechniky": 4461,
      "nel": 4462,
      "28": 4463,
      "Ġdojem": 4464,
      "Ġkdyby": 4465,
      "Ġslo": 4466,
      "Ġkomplex": 4467,
      "sÃº": 4468,
      "ĠreÃ¡lne": 4469,
      "ĠskutoÄįnosÅ¥": 4470,
      "ĠÅ¾ijÃº": 4471,
      "ĠÅ¡k": 4472,
      "mia": 4473,
      "ĠCha": 4474,
      "pka": 4475,
      "ĠsystÃ©mov": 4476,
      "Ġpolitik": 4477,
      "ÅĪovanie": 4478,
      "pt": 4479,
      "ĠPC": 4480,
      "Ġmene": 4481,
      "ĠSpojenÃ½ch": 4482,
      "oviÄį": 4483,
      "novej": 4484,
      "tnÃ½ch": 4485,
      "Ġprofil": 4486,
      "75": 4487,
      "bri": 4488,
      "ĠJana": 4489,
      "Ġpokles": 4490,
      "ĠIraku": 4491,
      "stia": 4492,
      "iaci": 4493,
      "Ġsklo": 4494,
      "Ġpaci": 4495,
      "rami": 4496,
      "ĠDr": 4497,
      "ĠÃºver": 4498,
      "Ġoprav": 4499,
      "Ġjde": 4500,
      "Ġhodin": 4501,
      "Ġoblastiach": 4502,
      "ĠslÃºÅ¾i": 4503,
      "ĠvyrobenÃ©": 4504,
      "ĠohÄ¾adu": 4505,
      "vad": 4506,
      "ĠÄıalÅ¡ieho": 4507,
      "TÃŃ": 4508,
      "Ġsku": 4509,
      "Ġvysvet": 4510,
      "ĠzÃ¡pasy": 4511,
      "Ġ120": 4512,
      "kovaÅ¥": 4513,
      "Ġdreva": 4514,
      "Ġbeen": 4515,
      "Ste": 4516,
      "ickÃ½ch": 4517,
      "ĠSaS": 4518,
      "tar": 4519,
      "eno": 4520,
      "ÃŃna": 4521,
      "Ġchybu": 4522,
      "ĠJE": 4523,
      "ĠÄıakujem": 4524,
      "ĠMartina": 4525,
      "Ġom": 4526,
      "Ġposlanec": 4527,
      "Ġpracov": 4528,
      "Ked": 4529,
      "cieho": 4530,
      "Ġstup": 4531,
      "Ro": 4532,
      "Ġvojne": 4533,
      "ens": 4534,
      "ĠÃºstav": 4535,
      "renie": 4536,
      "Ã¡ciu": 4537,
      "Ġschon": 4538,
      "Ã©ri": 4539,
      "tÃ½m": 4540,
      "ĠkonÄįÃŃ": 4541,
      "ĠdievÄįa": 4542,
      "ĠvÃ½sledkom": 4543,
      "ĠDeutschland": 4544,
      "sem": 4545,
      "ĠnÃ¡kup": 4546,
      "Ġnikde": 4547,
      "Äįuje": 4548,
      "33": 4549,
      "ĠÅ¡tÃ¡te": 4550,
      "io": 4551,
      "MÃ´Å¾e": 4552,
      "dilo": 4553,
      "Äįin": 4554,
      "nÃŃkmi": 4555,
      "Ġtypy": 4556,
      "Ġpripade": 4557,
      "Ġ41": 4558,
      "Ġsrdca": 4559,
      "ĠSÃº": 4560,
      "ya": 4561,
      "ĠbÃ½valÃ©ho": 4562,
      "Ġsused": 4563,
      "Ã¡lnou": 4564,
      "Ġpotraviny": 4565,
      "rÃ¡Å¾": 4566,
      "Ġozaj": 4567,
      "ĠsluÅ¾bu": 4568,
      "bali": 4569,
      "ĠskupÃŃn": 4570,
      "DÃ¡": 4571,
      "ĠBal": 4572,
      "ĠzvyÅ¡": 4573,
      "Ġstavby": 4574,
      "ĠdÃŃ": 4575,
      "ĠÅ¡koda": 4576,
      "Dokonca": 4577,
      "Obec": 4578,
      "ĠSME": 4579,
      "haÅ¥": 4580,
      "Ġdemokracie": 4581,
      "Ġtaj": 4582,
      "mati": 4583,
      "ĠpoÄįÃŃta": 4584,
      "Jo": 4585,
      "Ġstrasne": 4586,
      "Ġtohle": 4587,
      "stava": 4588,
      "Ġpest": 4589,
      "HO": 4590,
      "Ġtretej": 4591,
      "ĠpostaviÅ¥": 4592,
      "ĠmalÃ¡": 4593,
      "nok": 4594,
      "pod": 4595,
      "Ġsyna": 4596,
      "ovu": 4597,
      "Ġmiery": 4598,
      "ĠprÃŃklad": 4599,
      "ĠspoluprÃ¡ce": 4600,
      "ĠnÃ¡kladov": 4601,
      "Ba": 4602,
      "ĠschopnÃ½": 4603,
      "dne": 4604,
      "ĠvyplÃ½va": 4605,
      "ĠnemÃ´Å¾em": 4606,
      "lene": 4607,
      "Ġem": 4608,
      "cher": 4609,
      "ĠarmÃ¡dy": 4610,
      "rovaÅ¥": 4611,
      "vajte": 4612,
      "ĠGo": 4613,
      "Ġvek": 4614,
      "ĠPraha": 4615,
      "Ġkru": 4616,
      "Ġjsi": 4617,
      "tÃ½ch": 4618,
      "Ġpop": 4619,
      "ĠEu": 4620,
      "vila": 4621,
      "ĠlÃº": 4622,
      "Ġeko": 4623,
      "ĠrokovanÃŃ": 4624,
      "ĠspoloÄįnostÃŃ": 4625,
      "Ġ62": 4626,
      "xy": 4627,
      "ona": 4628,
      "rky": 4629,
      "ĠaktÃŃvne": 4630,
      "Ġzver": 4631,
      "Ġveru": 4632,
      "roÄįnÃ©ho": 4633,
      "ĠTri": 4634,
      "Ġdisku": 4635,
      "Ġpokus": 4636,
      "Ġneb": 4637,
      "Ġklientov": 4638,
      "ĠDie": 4639,
      "lite": 4640,
      "port": 4641,
      "Ġkraja": 4642,
      "niu": 4643,
      "ĠoÄįÃŃ": 4644,
      "Ġ250": 4645,
      "ĠÄįÃŃtaÅ¥": 4646,
      "bila": 4647,
      "Ġnechcel": 4648,
      "ĠÃºrady": 4649,
      "Sk": 4650,
      "ĠsÃ©rie": 4651,
      "uji": 4652,
      "Ġlife": 4653,
      "ary": 4654,
      "ĠdvadsaÅ¥": 4655,
      "kli": 4656,
      "ĠsilnÃ½": 4657,
      "Ġpriestoroch": 4658,
      "ĠstÃ¡Å¥": 4659,
      "Ġkvalita": 4660,
      "ĠMarek": 4661,
      "ĠAd": 4662,
      "ĠNaj": 4663,
      "ĠmenÅ¡ie": 4664,
      "Ġ600": 4665,
      "ĠvaÅ¡a": 4666,
      "Ġqu": 4667,
      "Ġovplyv": 4668,
      "ĠporadÃŃ": 4669,
      "Ġskupinu": 4670,
      "Ġchud": 4671,
      "And": 4672,
      "ĠplnÃ½": 4673,
      "ĠPrahe": 4674,
      "Ġpriestory": 4675,
      "kan": 4676,
      "Ġvysiela": 4677,
      "Ã¡Å¡": 4678,
      "Ġvrch": 4679,
      "ĠvidÃŃ": 4680,
      "Ġobavy": 4681,
      "ĠvÅ¯bec": 4682,
      "ĠposkytnÃºÅ¥": 4683,
      "Q": 4684,
      "Ġkarty": 4685,
      "raÄį": 4686,
      "Ġprek": 4687,
      "Ġthan": 4688,
      "Ġmld": 4689,
      "rz": 4690,
      "lÃ¡r": 4691,
      "ĠvodiÄį": 4692,
      "Ġzakon": 4693,
      "ĠÃºÄįasti": 4694,
      "Ġproduk": 4695,
      "uÅ¾": 4696,
      "ĠzaÄį": 4697,
      "ĠzvyÅ¡uje": 4698,
      "ĠtechnolÃ³gie": 4699,
      "ĠrukÃ¡ch": 4700,
      "kovÃ½m": 4701,
      "ĠovlÃ¡da": 4702,
      "stro": 4703,
      "AD": 4704,
      "ĠpÅĻ": 4705,
      "dÄĽ": 4706,
      "Äįok": 4707,
      "29": 4708,
      "ĠpracovnÃŃkov": 4709,
      "ĠpokraÄįuje": 4710,
      ".?": 4711,
      "ĠteÄı": 4712,
      "ĠNemecka": 4713,
      "Ġfu": 4714,
      "Ġfin": 4715,
      "ĠjednoznaÄįne": 4716,
      "ĠbudÃºcnosÅ¥": 4717,
      "Ġposti": 4718,
      "nicu": 4719,
      "Ġosobu": 4720,
      "ĠgÃ³lov": 4721,
      "Ġvrchol": 4722,
      "ĠÅ¡peciali": 4723,
      "ktor": 4724,
      "teli": 4725,
      "Ġverzia": 4726,
      "ĠVÃ¡Å¡": 4727,
      "ĠprevÃ¡dzky": 4728,
      "NS": 4729,
      "ĠvyuÅ¾ÃŃvaÅ¥": 4730,
      "ĠoznÃ¡mil": 4731,
      "ĠminÃºte": 4732,
      "Ġoz": 4733,
      "Ġfunk": 4734,
      "ĠzistiÅ¥": 4735,
      "ĠkandidÃ¡tov": 4736,
      "Ġnav": 4737,
      "Ġzelen": 4738,
      "rili": 4739,
      "Ġshould": 4740,
      "tera": 4741,
      "wer": 4742,
      "ĠFe": 4743,
      "Ġvyhra": 4744,
      "ĠtermÃŃn": 4745,
      "Ġpobyt": 4746,
      "ĠsnaÅ¾ia": 4747,
      "tic": 4748,
      "Ġopravdu": 4749,
      "Ġkroky": 4750,
      "ĠrÃº": 4751,
      "Ġnesta": 4752,
      "chÃ¡dza": 4753,
      "jed": 4754,
      "Äįer": 4755,
      "cuje": 4756,
      "Å¡nÃ©": 4757,
      "Hej": 4758,
      "onu": 4759,
      "ĠQu": 4760,
      "Ġmechani": 4761,
      "Ġback": 4762,
      "plo": 4763,
      "ĠGÃ³ly": 4764,
      "pan": 4765,
      "Ġau": 4766,
      "pred": 4767,
      "ĠzvyÄįajne": 4768,
      "ill": 4769,
      "mon": 4770,
      "ĠzÃ¡hrad": 4771,
      "ph": 4772,
      "odu": 4773,
      "Ġstovky": 4774,
      "Ġkvoli": 4775,
      "ĠPar": 4776,
      "ĠroÄįnÃŃka": 4777,
      "Ġochran": 4778,
      "Ġform": 4779,
      "ĠodkiaÄ¾": 4780,
      "Ġdohodu": 4781,
      "ah": 4782,
      "Ġzub": 4783,
      "ĠpripravenÃ½": 4784,
      "Ġdann": 4785,
      "ĠdokÃ¡zal": 4786,
      "Ġsever": 4787,
      "ĠvÅ¡etkÃ©ho": 4788,
      "ĠsÃºÄįasnej": 4789,
      "Ġknihe": 4790,
      "ĠvzÅ¥ahov": 4791,
      "Ġnechal": 4792,
      "nÃŃÄįka": 4793,
      "ins": 4794,
      "ĠVas": 4795,
      "Ġtex": 4796,
      "Å¡lo": 4797,
      "zili": 4798,
      "ĠmyslÃŃte": 4799,
      "can": 4800,
      "ĠplÃ¡nuje": 4801,
      "ĠkonanÃŃ": 4802,
      "ĠfanÃºÅ¡ikov": 4803,
      "Ġproto": 4804,
      "kovou": 4805,
      "ĠNE": 4806,
      "Ġdoktor": 4807,
      "ĠprÃŃpravu": 4808,
      "ĠKeÄı": 4809,
      "nak": 4810,
      "Ġhr": 4811,
      "PrvÃ½": 4812,
      "ciÃ¡m": 4813,
      "lenÃ½ch": 4814,
      "lina": 4815,
      "CieÄ¾om": 4816,
      "Ġsmr": 4817,
      "ujÃºcim": 4818,
      "ĠrozhodnÃºÅ¥": 4819,
      "ĠtrÃ©nera": 4820,
      "Ġ2019": 4821,
      "Ġdokon": 4822,
      "Ġstred": 4823,
      "Ġpoly": 4824,
      "Pa": 4825,
      "ĠsilnÃ©": 4826,
      "strÃ¡": 4827,
      "anou": 4828,
      "Ġmozes": 4829,
      "Ġzdarma": 4830,
      "ĠprÃ¡c": 4831,
      "Ġtvoja": 4832,
      "Ġhy": 4833,
      "Ġhlavnej": 4834,
      "Ġkurz": 4835,
      "Ð¸": 4836,
      "ĠvÃ½skumu": 4837,
      "Ġzabi": 4838,
      "pil": 4839,
      "toÄį": 4840,
      "Niekedy": 4841,
      "Ġsexu": 4842,
      "Ġdielo": 4843,
      "Ġumenia": 4844,
      "ĠpripraviÅ¥": 4845,
      "Å¡k": 4846,
      "LenÅ¾e": 4847,
      "dalo": 4848,
      "vateÄ¾": 4849,
      "Ġpolicajti": 4850,
      "lenÃ¡": 4851,
      "teÄ¾om": 4852,
      "ĠvÅ¡etkÃ½mi": 4853,
      "ting": 4854,
      "Ġmesiaca": 4855,
      "Ġuvedom": 4856,
      "ujÃºceho": 4857,
      "Ġobmedz": 4858,
      "ĠCD": 4859,
      "stvÃŃ": 4860,
      "ĠÄįoskoro": 4861,
      "Ġhan": 4862,
      "ĠÅ¾enu": 4863,
      "avi": 4864,
      "ĠsÃºper": 4865,
      "loÅ¾": 4866,
      "Ġpie": 4867,
      "Ġpici": 4868,
      "ĠhrozÃŃ": 4869,
      "lami": 4870,
      "ĠPol": 4871,
      "ĠvÅ¡eobecne": 4872,
      "ĠprÃŃpravy": 4873,
      "cent": 4874,
      "Ġvidela": 4875,
      "Ġposta": 4876,
      "ĠBur": 4877,
      "Ġdopad": 4878,
      "Ġkann": 4879,
      "ĠverÃŃm": 4880,
      "mus": 4881,
      "Ġtato": 4882,
      "zovanÃ½": 4883,
      "ujes": 4884,
      "zme": 4885,
      "ĠÃºÄįastnÃŃkov": 4886,
      "Ġonly": 4887,
      "ĠÅ¡kolÃ¡ch": 4888,
      "tovÃ©ho": 4889,
      "Ġgood": 4890,
      "ĠjedinÃ¡": 4891,
      "ĠÃºspeÅ¡ne": 4892,
      "piÅ¥": 4893,
      "hnut": 4894,
      "Ġposlal": 4895,
      "hlo": 4896,
      "ĠhlavnÃ½": 4897,
      "wn": 4898,
      "Ġdan": 4899,
      "jo": 4900,
      "Å¡ila": 4901,
      "ĠBre": 4902,
      "ĠdochÃ¡dza": 4903,
      "Ġhnus": 4904,
      "Ġmozem": 4905,
      "rovanie": 4906,
      "ĠÄıalÅ¡ÃŃm": 4907,
      "Ġzh": 4908,
      "rila": 4909,
      "ĠMon": 4910,
      "Ġtechno": 4911,
      "stnÃ½": 4912,
      "Ġnaposledy": 4913,
      "Ġsee": 4914,
      "ĠmiliÃ³ny": 4915,
      "kor": 4916,
      "hn": 4917,
      "Ġneviete": 4918,
      "Ġbit": 4919,
      "klo": 4920,
      "zÃ¡cii": 4921,
      "ĠneznamenÃ¡": 4922,
      "Ġjazyka": 4923,
      "ĠnÃ¡rok": 4924,
      "ĠÃºzemie": 4925,
      "teri": 4926,
      "ĠprÃŃpadov": 4927,
      "ĠdokÃ¡zali": 4928,
      "Ġzobraz": 4929,
      "kyÅĪa": 4930,
      "oni": 4931,
      "ĠÅ¾ia": 4932,
      "lt": 4933,
      "ĠpoÄįuÅ¥": 4934,
      "ĠVeÄ¾kej": 4935,
      "Ġpovedali": 4936,
      "ĠÄįaj": 4937,
      "tiu": 4938,
      "Ġpora": 4939,
      "zou": 4940,
      "ous": 4941,
      "ĠRichard": 4942,
      "Ġkres": 4943,
      "Ġstanice": 4944,
      "bav": 4945,
      "ĠknÃŃh": 4946,
      "ĠzaÄįiatok": 4947,
      "rac": 4948,
      "Ġhlava": 4949,
      "ĠÅ¡kody": 4950,
      "Ġnapl": 4951,
      "ĠbatÃ©rie": 4952,
      "boj": 4953,
      "ĠJohn": 4954,
      "avÃ½": 4955,
      "ĠNemecko": 4956,
      "ÄįÃŃme": 4957,
      "ĠpodarÃŃ": 4958,
      "ĠnaÅ¡im": 4959,
      "Ġpremie": 4960,
      "Ġtakom": 4961,
      "Ġaber": 4962,
      "ĠdalÅ¡ÃŃ": 4963,
      "Ġmikro": 4964,
      "Informovala": 4965,
      "Ã¡ka": 4966,
      "ĠPreÅ¡ov": 4967,
      "ĠÄįlovÄĽk": 4968,
      "Ġmyslia": 4969,
      "mor": 4970,
      "ĠÄįosi": 4971,
      "Ġtakej": 4972,
      "ĠÄĮeskej": 4973,
      "hrÃ¡": 4974,
      "ĠhospodÃ¡rstva": 4975,
      "ĠÄ¾Ãºto": 4976,
      "Ġhodnota": 4977,
      "Ġpripad": 4978,
      "Ġsc": 4979,
      "ĠdomÃ¡cnosti": 4980,
      "ĠvlastnÃ©ho": 4981,
      "Ġneskor": 4982,
      "Ġefekt": 4983,
      "ĠÄįeskÃ½": 4984,
      "ĠreÅ¾im": 4985,
      "ĠHarabin": 4986,
      "Ġdobrej": 4987,
      "znam": 4988,
      "xe": 4989,
      "ĠÅ¡tÃ¡tnych": 4990,
      "Ġdesiatky": 4991,
      "Ġ1989": 4992,
      "Ġturnaji": 4993,
      "Ġsame": 4994,
      "vid": 4995,
      "losÅ¥": 4996,
      "ĠpoÅ¡": 4997,
      "Ġdokonale": 4998,
      "Ġchces": 4999,
      "ĠstoroÄįÃŃ": 5000,
      "ĠtÃ©my": 5001,
      "ĠrÃ½chle": 5002,
      "ĠslovenskÃ¡": 5003,
      "Å¤": 5004,
      "ÄĽt": 5005,
      "Ġcene": 5006,
      "ovani": 5007,
      "Ġpodle": 5008,
      "Ġnen": 5009,
      "Ġhovor": 5010,
      "Ġsty": 5011,
      "plat": 5012,
      "ĠzaplatiÅ¥": 5013,
      "Ġzvy": 5014,
      "ĠverejnÃ©": 5015,
      "Ġvtip": 5016,
      "Ġlieky": 5017,
      "Ġkan": 5018,
      "ĠponÃºk": 5019,
      "dÃ¡va": 5020,
      "ĠIS": 5021,
      "tiku": 5022,
      "ĠnÃ¡zoru": 5023,
      "Ġsak": 5024,
      "Ġzra": 5025,
      "Ġthink": 5026,
      "Ġposkyt": 5027,
      "ÄįaÅ¥": 5028,
      "tmi": 5029,
      "tosÅ¥": 5030,
      "Ġsmere": 5031,
      "ĠskonÄįila": 5032,
      "ĠamerickÃ©ho": 5033,
      "Ġuh": 5034,
      "Ġturi": 5035,
      "Ġzapla": 5036,
      "ĠaktivÃŃt": 5037,
      "mel": 5038,
      "Ġuser": 5039,
      "Ġuniverzity": 5040,
      "NiÄį": 5041,
      "Ġhudbu": 5042,
      "Ġzach": 5043,
      "ĠoÅ¡et": 5044,
      "Ġrozhovor": 5045,
      "Ġhodno": 5046,
      "Ġlol": 5047,
      "mera": 5048,
      "ĠvysokÃ½": 5049,
      "Ġzab": 5050,
      "ĠnÃ¡roda": 5051,
      "ickÃ©ho": 5052,
      "pali": 5053,
      "Ġhotela": 5054,
      "bus": 5055,
      "nickÃ©": 5056,
      "kar": 5057,
      "tickÃ½m": 5058,
      "lenia": 5059,
      "Ġprechod": 5060,
      "ĠlidÃ©": 5061,
      "Ġubytovanie": 5062,
      "Ġnau": 5063,
      "ĠzÃŃska": 5064,
      "Ġ800": 5065,
      "ĠvÃ½voja": 5066,
      "ĠrovnakÃ½": 5067,
      "ome": 5068,
      "Ġmajetok": 5069,
      "ĠhodinÃ¡ch": 5070,
      "Ġslovami": 5071,
      "riÅ¥": 5072,
      "Ġpreukaz": 5073,
      "ĠsÃºbor": 5074,
      "zom": 5075,
      "ĠpozÃŃcie": 5076,
      "ĠDanko": 5077,
      "rich": 5078,
      "ĠstarÃ½ch": 5079,
      "bol": 5080,
      "rania": 5081,
      "Ġrepublika": 5082,
      "ĠuÄįiteÄ¾": 5083,
      "ĠBan": 5084,
      "nutÃŃm": 5085,
      "ĠprijaÅ¥": 5086,
      "hali": 5087,
      "Ġbru": 5088,
      "Ġter": 5089,
      "ĠvzhÄ¾ad": 5090,
      "Ġobjek": 5091,
      "alÃŃ": 5092,
      "ĠexistujÃº": 5093,
      "Ġelektri": 5094,
      "tÃŃvnych": 5095,
      "kde": 5096,
      "ĠzopÃ¡r": 5097,
      "poli": 5098,
      "tÃŃv": 5099,
      "ĠobÄįania": 5100,
      "Ġmonitor": 5101,
      "stor": 5102,
      "akov": 5103,
      "Ġsumu": 5104,
      "ajÃŃ": 5105,
      "Ġwant": 5106,
      "ĠdevÃ¤Å¥": 5107,
      "ĠagentÃºru": 5108,
      "Ġfarba": 5109,
      "star": 5110,
      "Ġporiadok": 5111,
      "Å¾nÃ©": 5112,
      "Ġchut": 5113,
      "Ġpodpis": 5114,
      "Ġjaz": 5115,
      "Ġsome": 5116,
      "ĠBystrici": 5117,
      "Ġnahra": 5118,
      "Ġobhaj": 5119,
      "ĠneÄıaleko": 5120,
      "Ġslab": 5121,
      "ĠMaj": 5122,
      "Jan": 5123,
      "Ġstrie": 5124,
      "2017": 5125,
      "ĠVladimÃŃr": 5126,
      "ĠPO": 5127,
      "hlÃ¡": 5128,
      "Ġpoku": 5129,
      "Ġprezidentom": 5130,
      "asa": 5131,
      "niky": 5132,
      "ĠSlov": 5133,
      "ĠtlaÄįovej": 5134,
      "ĠchcieÅ¥": 5135,
      "Ġkonecne": 5136,
      "ĠreÅ¾imu": 5137,
      "ĠvÃ½hod": 5138,
      "ĠprÃŃdu": 5139,
      "Ġvyjad": 5140,
      "ĠtÄĽ": 5141,
      "Ra": 5142,
      "ĠvhodnÃ¡": 5143,
      "Ä¾ovaÅ¥": 5144,
      "Ġsad": 5145,
      "ture": 5146,
      "ĠznÃŃÅ¾iÅ¥": 5147,
      "viac": 5148,
      "ĠpriateÄ¾ov": 5149,
      "kÃ½ch": 5150,
      "ĠhÃ¡": 5151,
      "Ġap": 5152,
      "Ġfondu": 5153,
      "Ġput": 5154,
      "ĠTer": 5155,
      "Ġnasad": 5156,
      "ĠKi": 5157,
      "ĠÄ¾ahkÃ©": 5158,
      "bre": 5159,
      "ĠautÃ¡": 5160,
      "Ġtrocha": 5161,
      "Ġhodnote": 5162,
      "ĠsprÃ¡vny": 5163,
      "Ġprvky": 5164,
      "Ġlov": 5165,
      "ĠprijÃŃma": 5166,
      "ern": 5167,
      "Ġprote": 5168,
      "ÃĿ": 5169,
      "Ministerstvo": 5170,
      "ĠkÃ¡": 5171,
      "Ġpoh": 5172,
      "Ġzdra": 5173,
      "ĠÅ¡Ã©fa": 5174,
      "ony": 5175,
      "ĠIng": 5176,
      "Ġpoliti": 5177,
      "ĠvÅ¡ichni": 5178,
      "ĠtvÃ¡re": 5179,
      "tnÃ©ho": 5180,
      "Ġzde": 5181,
      "ken": 5182,
      "ĠpÃŃsm": 5183,
      "Ġ54": 5184,
      "nutÃ¡": 5185,
      "Ġnevidel": 5186,
      "Ġhudba": 5187,
      "Ġzdravotnej": 5188,
      "ĠnÃ¡jde": 5189,
      "ĠdÃ¡vaÅ¥": 5190,
      "pie": 5191,
      "Ã¡te": 5192,
      "nat": 5193,
      "ĠBra": 5194,
      "ĠorgÃ¡nov": 5195,
      "Ġpolovicu": 5196,
      "zel": 5197,
      "ĠÃºÄįelom": 5198,
      "ĠspoloÄįnosÅ¥ou": 5199,
      "ĠpozÃŃciu": 5200,
      "ĠÅ¾iaden": 5201,
      "Ġpivo": 5202,
      "stiev": 5203,
      "ĠÃºÄįel": 5204,
      "jete": 5205,
      "ĠCor": 5206,
      "ĠdostanÃº": 5207,
      "ĠpoisÅ¥ovne": 5208,
      "ĠBabiÅ¡": 5209,
      "ujÃºca": 5210,
      "ÄįovÃ¡": 5211,
      "ĠukÃ¡zaÅ¥": 5212,
      "ĠpotenciÃ¡l": 5213,
      "ĠÅ¡tudent": 5214,
      "Äįik": 5215,
      "ĠhlavnÃ½ch": 5216,
      "Ġinto": 5217,
      "ĠvrÃ¡ti": 5218,
      "ĠPor": 5219,
      "ĠzÃ¡sad": 5220,
      "rieÅ¥": 5221,
      "nuÅ¥": 5222,
      "Ġakciu": 5223,
      "Ġbio": 5224,
      "rez": 5225,
      "Ġhotel": 5226,
      "NaÅ¡e": 5227,
      "ĠnÃ¡rodnÃ©ho": 5228,
      "ĠkterÃ¡": 5229,
      "ĠstraÅ¡ne": 5230,
      "Ġobjavili": 5231,
      "Ã¡lom": 5232,
      "Ġcharakteri": 5233,
      "ĠpodnikateÄ¾": 5234,
      "ĠsÄ¾ub": 5235,
      "less": 5236,
      "Ġnahodou": 5237,
      "ĠRoman": 5238,
      "ĠkomunikÃ¡cie": 5239,
      "Ġzostane": 5240,
      "ĠBystrica": 5241,
      "Ġaute": 5242,
      "ĠPu": 5243,
      "ĠmyÅ¡lienky": 5244,
      "Ti": 5245,
      "ĠvoÄ¾bami": 5246,
      "Ġobchode": 5247,
      "Ġnemocnici": 5248,
      "ĠveÄ¾kou": 5249,
      "ĠvÃ¤ÄįÅ¡iu": 5250,
      "Ä¾ujÃº": 5251,
      "Ġzranenia": 5252,
      "ĠSI": 5253,
      "ĠzÃ¡ujmu": 5254,
      "sli": 5255,
      "Ġnepodarilo": 5256,
      "ĠhlavnÃ½m": 5257,
      "Ġpretoze": 5258,
      "Ġvypl": 5259,
      "ĠtÃ½mi": 5260,
      "ĠBi": 5261,
      "ĠmÄĽli": 5262,
      "tÃ¡cie": 5263,
      "Ġrozhovore": 5264,
      "Ġtaka": 5265,
      "ĠnajÄįastejÅ¡ie": 5266,
      "Stre": 5267,
      "Ġprajem": 5268,
      "LO": 5269,
      "Ġnemo": 5270,
      "isti": 5271,
      "ĠkÃºsok": 5272,
      "uda": 5273,
      "ĠmoÅ¾nosÅ¥ou": 5274,
      "95": 5275,
      "Ġvoli": 5276,
      "Ġzverej": 5277,
      "ĠstarÃ½": 5278,
      "Ġturnaj": 5279,
      "ĠhovorkyÅĪa": 5280,
      "Ġeura": 5281,
      "Ġblo": 5282,
      "ĠKraj": 5283,
      "ĠprejsÅ¥": 5284,
      "ges": 5285,
      "ĠvÃŃc": 5286,
      "Ġtedy": 5287,
      "vel": 5288,
      "Ġpotrebu": 5289,
      "ĠvysokÃº": 5290,
      "rÃ¡n": 5291,
      "SÃºÄįasÅ¥ou": 5292,
      "SD": 5293,
      "ovacÃŃch": 5294,
      "Ġzobrazuje": 5295,
      "roÄįnÃ¡": 5296,
      "Ġakej": 5297,
      "sich": 5298,
      "ĠviacerÃ©": 5299,
      "Ãºd": 5300,
      "Ġkdy": 5301,
      "Ã¡me": 5302,
      "Ġpovrchu": 5303,
      "Ġpozemku": 5304,
      "Ġkoncert": 5305,
      "lÃ¡k": 5306,
      "64": 5307,
      "Ġpotrebujem": 5308,
      "Ġpravidiel": 5309,
      "ĠvravÃŃ": 5310,
      "ĠTen": 5311,
      "ĠrÃ½chlejÅ¡ie": 5312,
      "ink": 5313,
      "ĠprevaÅ¾ne": 5314,
      "Ġfla": 5315,
      "Su": 5316,
      "eri": 5317,
      "Ġfot": 5318,
      "Ġspod": 5319,
      "ĠvÃ¡Å¾": 5320,
      "zim": 5321,
      "Cena": 5322,
      "Ġfilme": 5323,
      "leb": 5324,
      "ĠSDKÃļ": 5325,
      "Ġosobnosti": 5326,
      "ĠobchodnÃ½ch": 5327,
      "ĠznÃŃÅ¾enie": 5328,
      "ĠÅ¾ivotnÃ©": 5329,
      "Nad": 5330,
      "ĠdobÅĻe": 5331,
      "ĠobetÃŃ": 5332,
      "tos": 5333,
      "Ġgener": 5334,
      "Ġproduktu": 5335,
      "ĠurÄįenÃ¡": 5336,
      "ws": 5337,
      "zil": 5338,
      "Ã¡rov": 5339,
      "ĠakurÃ¡t": 5340,
      "ĠvÃ½Å¡ka": 5341,
      "nali": 5342,
      "Ġnaci": 5343,
      "ĠriaditeÄ¾a": 5344,
      "lova": 5345,
      "ĠprÃŃjmov": 5346,
      "ĠzÃ¡vislosti": 5347,
      "Ġpriemysel": 5348,
      "lal": 5349,
      "Ġkampane": 5350,
      "ĠzÃ¡leÅ¾ÃŃ": 5351,
      "Ġpriestorov": 5352,
      "ĠneÃº": 5353,
      "ĠvolÃ¡": 5354,
      "Nikto": 5355,
      "ĠstrÃ¡nkach": 5356,
      "ĠjednÃ¡": 5357,
      "ĠnajvÃ¤ÄįÅ¡ie": 5358,
      "We": 5359,
      "Ġzmie": 5360,
      "Ġvsetkych": 5361,
      "Ġfree": 5362,
      "ĠFran": 5363,
      "zovanie": 5364,
      "ĠpeknÃ½": 5365,
      "Ġpobytu": 5366,
      "ĠprevÃ¡dz": 5367,
      "Ġpoviem": 5368,
      "ĠOS": 5369,
      "ĠzbranÃŃ": 5370,
      "Ġomnoho": 5371,
      "Ġvznikol": 5372,
      "Ġth": 5373,
      "Ġodmieta": 5374,
      "ĠsystÃ©mom": 5375,
      "ĠvykonÃ¡va": 5376,
      "ĠprechÃ¡dza": 5377,
      "ĠnajvÃ¤ÄįÅ¡ÃŃch": 5378,
      "lenÃŃm": 5379,
      "ĠdrÅ¾ÃŃ": 5380,
      "Äįte": 5381,
      "ĠtrestnÃ©": 5382,
      "Ġanaly": 5383,
      "Vi": 5384,
      "Ġply": 5385,
      "ĠpodujatÃŃ": 5386,
      "cem": 5387,
      "Ġzvuk": 5388,
      "Ġinternetu": 5389,
      "ÄįkovÃ¡": 5390,
      "Ä¾ovanie": 5391,
      "ĠsprÃ¡vanie": 5392,
      "ĠÃ©": 5393,
      "bin": 5394,
      "ovanom": 5395,
      "Ġmiere": 5396,
      "AP": 5397,
      "Ġnove": 5398,
      "ĠspÃ¡": 5399,
      "Ġdosah": 5400,
      "ĠzabezpeÄį": 5401,
      "ĠÄıalÅ¡ÃŃmi": 5402,
      "ĠCity": 5403,
      "Ġsled": 5404,
      "Ġfestival": 5405,
      "AC": 5406,
      "Ġ1998": 5407,
      "viÅ¥": 5408,
      "Ġnapriklad": 5409,
      "Ġzda": 5410,
      "pky": 5411,
      "ĠskvelÃ©": 5412,
      "ĠOn": 5413,
      "Ġinteg": 5414,
      "ĠdostupnÃ©": 5415,
      "Ku": 5416,
      "ĠlÃ¡sku": 5417,
      "Ġdrob": 5418,
      "ĠdruhÃ½m": 5419,
      "ĠveriÅ¥": 5420,
      "Ho": 5421,
      "ĠvysvetÄ¾uje": 5422,
      "ĠÅ½ilina": 5423,
      "MÃ´j": 5424,
      "Ġblb": 5425,
      "ĠBru": 5426,
      "ĠSlovenskÃ½": 5427,
      "novi": 5428,
      "Ġextra": 5429,
      "byt": 5430,
      "Ġga": 5431,
      "lne": 5432,
      "Ġfilmy": 5433,
      "Ġpozna": 5434,
      "Ġostrov": 5435,
      "Ġpleti": 5436,
      "Ġregist": 5437,
      "Ġ76": 5438,
      "ĠIT": 5439,
      "ĠÄįastÃŃ": 5440,
      "Ġspravil": 5441,
      "oj": 5442,
      "Ġshow": 5443,
      "Ġbre": 5444,
      "ety": 5445,
      "Ġstanov": 5446,
      "Å¡tÄĽ": 5447,
      "ĠnÃ¡sled": 5448,
      "ez": 5449,
      "MÃ¡te": 5450,
      "Ġelektro": 5451,
      "Kom": 5452,
      "kto": 5453,
      "kolvek": 5454,
      "ĠmeniÅ¥": 5455,
      "ĠCH": 5456,
      "omo": 5457,
      "Nej": 5458,
      "Ġnik": 5459,
      "ĠplÃ¡nu": 5460,
      "Ġode": 5461,
      "Ġcha": 5462,
      "Ġ49": 5463,
      "dli": 5464,
      "Ġefek": 5465,
      "84": 5466,
      "Ġobsahom": 5467,
      "ĠpohÃ¡ra": 5468,
      "Ġmon": 5469,
      "ĠZem": 5470,
      "ĠmanaÅ¾Ã©r": 5471,
      "nis": 5472,
      "ĠDub": 5473,
      "Å¾nÃ½": 5474,
      "Ġponuka": 5475,
      "Ġ2020": 5476,
      "ĠsystÃ©me": 5477,
      "of": 5478,
      "ĠnÃ¡dej": 5479,
      "stka": 5480,
      "Ġpohybu": 5481,
      "kove": 5482,
      "ĠBor": 5483,
      "Ġodseku": 5484,
      "niku": 5485,
      "Ġute": 5486,
      "Ġkym": 5487,
      "Ġcivili": 5488,
      "Ġosud": 5489,
      "ĠbolesÅ¥": 5490,
      "Pr": 5491,
      "stali": 5492,
      "ĠANO": 5493,
      "ĠnÃ¡rast": 5494,
      "Ã½va": 5495,
      "ĠTour": 5496,
      "Sa": 5497,
      "rs": 5498,
      "Ġpodniku": 5499,
      "Ġokolia": 5500,
      "lÃ½ch": 5501,
      "Ġsvetla": 5502,
      "Ã¡vaÅ¥": 5503,
      "lky": 5504,
      "ĠpoÄ¾": 5505,
      "ĠÃºÄįin": 5506,
      "atÃŃ": 5507,
      "ĠhlÃ¡": 5508,
      "Ġautomobil": 5509,
      "Ġpodpora": 5510,
      "ĠinÃŃ": 5511,
      "ĠSer": 5512,
      "ĠtÄĽch": 5513,
      "ĠNovÃ¡": 5514,
      "nenÃ½ch": 5515,
      "ĠfungovaÅ¥": 5516,
      "ĠponÃºkajÃº": 5517,
      "pila": 5518,
      "ĠÄĮer": 5519,
      "Å¡tÃŃ": 5520,
      "Ġneskoro": 5521,
      "NiektorÃŃ": 5522,
      "ĠfinanÄįnej": 5523,
      "ĠMinisterstva": 5524,
      "vas": 5525,
      "Ġformy": 5526,
      "Ġjazyku": 5527,
      "Ġvplyvom": 5528,
      "Ġbun": 5529,
      "ĠdostÃ¡va": 5530,
      "sol": 5531,
      "ĠOr": 5532,
      "Ġjestli": 5533,
      "Ġude": 5534,
      "Ã¡ciou": 5535,
      "ĠÅ¡tÃŃ": 5536,
      "sak": 5537,
      "Ġticho": 5538,
      "Ġvzduch": 5539,
      "rÃ¡cia": 5540,
      "ĠnÃ¡rodnej": 5541,
      "DA": 5542,
      "ĠÄįias": 5543,
      "ĠÅ¥aÅ¾": 5544,
      "Ġochorenia": 5545,
      "DÃºfam": 5546,
      "Ġokres": 5547,
      "Ġwenn": 5548,
      "Ð": 5549,
      "lÃŃn": 5550,
      "Ġdohod": 5551,
      "CelÃ½": 5552,
      "tajÃº": 5553,
      "Ġvenuje": 5554,
      "ĠdodÃ¡": 5555,
      "Ġmag": 5556,
      "Ġpresved": 5557,
      "bia": 5558,
      "Pe": 5559,
      "Ġvediet": 5560,
      "å": 5561,
      "ĠdÄĽti": 5562,
      "ĠzdÃ´raznil": 5563,
      "ĠÅ¡tÃ¡toch": 5564,
      "ĠÅ¡at": 5565,
      "You": 5566,
      "Ġorganiza": 5567,
      "vÃ½m": 5568,
      "Ġdoty": 5569,
      "ĠjÃŃ": 5570,
      "ĠzabezpeÄįenie": 5571,
      "Ġobed": 5572,
      "Ġrodin": 5573,
      "ĠHol": 5574,
      "teÄ¾ne": 5575,
      "ĠME": 5576,
      "ĠpÃ´sobil": 5577,
      "Ġ1999": 5578,
      "ady": 5579,
      "ĠmlÃ¡deÅ¾": 5580,
      "Ġukaz": 5581,
      "ĠÄıalÅ¡ej": 5582,
      "ĠzahÅķÅĪa": 5583,
      "Ġnedostatok": 5584,
      "zan": 5585,
      "Ġ190": 5586,
      "Ġprid": 5587,
      "ĠmoÅ¾nÃ¡": 5588,
      "Ġdiskusie": 5589,
      "ĠMer": 5590,
      "ĠnÄĽ": 5591,
      "Ġmezi": 5592,
      "ĠdobrovoÄ¾": 5593,
      "ĠudrÅ¾aÅ¥": 5594,
      "rum": 5595,
      "dra": 5596,
      "Ġnemohli": 5597,
      "Ġrozlohu": 5598,
      "Äįina": 5599,
      "Ã³d": 5600,
      "Ġspra": 5601,
      "ĠmestÃ¡ch": 5602,
      "Ġalterna": 5603,
      "ĠnejakÃ¡": 5604,
      "ĠZuzana": 5605,
      "Ġany": 5606,
      "Ġzah": 5607,
      "Ġpresad": 5608,
      "avy": 5609,
      "Ġposu": 5610,
      "Ġtrvalo": 5611,
      "Povedal": 5612,
      "rÃ¡d": 5613,
      "ĠnemoÅ¾no": 5614,
      "oma": 5615,
      "ĠminÃºty": 5616,
      "ĠnajneskÃ´r": 5617,
      "Ġoba": 5618,
      "ĠvyÅ¡Å¡ÃŃ": 5619,
      "Jak": 5620,
      "ĠYork": 5621,
      "Di": 5622,
      "ĠpokoÅ¾ku": 5623,
      "Mi": 5624,
      "vneho": 5625,
      "Ġklasi": 5626,
      "inak": 5627,
      "ĠideÃ¡lne": 5628,
      "ĠvÃ½konom": 5629,
      "ĠuvedenÃ½ch": 5630,
      "prava": 5631,
      "Ġtaketo": 5632,
      "Ġuni": 5633,
      "Äįanov": 5634,
      "ĠMor": 5635,
      "Ġfarbu": 5636,
      "Ġhroz": 5637,
      "NajvyÅ¡Å¡ÃŃ": 5638,
      "ĠnÃ¡stroj": 5639,
      "Ġfak": 5640,
      "ĠMin": 5641,
      "ĠstrÃ¡nok": 5642,
      "Äİakujem": 5643,
      "Ġtalent": 5644,
      "ĠskonÄįÃŃ": 5645,
      "Ġcol": 5646,
      "Ġozna": 5647,
      "Ã¡li": 5648,
      "Ġbyli": 5649,
      "Ġporu": 5650,
      "Ġokolie": 5651,
      "lÃ¡ch": 5652,
      "ĠrieÅ¡enÃŃ": 5653,
      "Ġpravi": 5654,
      "pia": 5655,
      "ĠveÄ¾kom": 5656,
      "ĠToto": 5657,
      "Ġshe": 5658,
      "med": 5659,
      "ĠÅ¡ko": 5660,
      "ĠSlovakia": 5661,
      "Ġseptembri": 5662,
      "ĠobleÄįenie": 5663,
      "doch": 5664,
      "nim": 5665,
      "ĠbudÃºceho": 5666,
      "Ġhomosexu": 5667,
      "Ġspojenie": 5668,
      "ĠzastaviÅ¥": 5669,
      "ĠukÃ¡zal": 5670,
      "ĠfrancÃºzska": 5671,
      "Naopak": 5672,
      "Ġnew": 5673,
      "ĠÃºvod": 5674,
      "enky": 5675,
      "ĠprispÃ´sob": 5676,
      "ĠmladÃ½": 5677,
      "rovÃ©": 5678,
      "Ã¨": 5679,
      "ĠskÃºsenosÅ¥": 5680,
      "Äįit": 5681,
      "VieÅ¡": 5682,
      "Ġzboru": 5683,
      "rch": 5684,
      "ĠÄįlenskÃ½ch": 5685,
      "ĠST": 5686,
      "Ġtelefon": 5687,
      "Ġodmietol": 5688,
      "Ġkonferencii": 5689,
      "Ġvytvorenie": 5690,
      "ĠpridaÅ¥": 5691,
      "Ġzasad": 5692,
      "Ġmini": 5693,
      "rajÃº": 5694,
      "ĠodbornÃŃkov": 5695,
      "ĠcestÃ¡ch": 5696,
      "ĠÅ¡portu": 5697,
      "Ġpouzi": 5698,
      "Ġtraja": 5699,
      "Viete": 5700,
      "ĠÄįiastoÄįne": 5701,
      "kujÃº": 5702,
      "ĠÃºvahy": 5703,
      "Ġsti": 5704,
      "ĠskvelÃ½": 5705,
      "ĠvyuÅ¾itie": 5706,
      "Ġleta": 5707,
      "Ġ47": 5708,
      "Ġorigin": 5709,
      "Ġpredstavitelia": 5710,
      "ĠodÃŃsÅ¥": 5711,
      "ost": 5712,
      "Ġdobro": 5713,
      "Ġindividu": 5714,
      "Ġpracoval": 5715,
      "ĠatmosfÃ©ru": 5716,
      "kra": 5717,
      "fal": 5718,
      "ĠSp": 5719,
      "ĠpozeraÅ¥": 5720,
      "ĠgenerÃ¡cie": 5721,
      "ĠDra": 5722,
      "Ġrock": 5723,
      "Ġpit": 5724,
      "Ġdam": 5725,
      "ĠkrÃŃzy": 5726,
      "ĠloÄı": 5727,
      "36": 5728,
      "Ġinforma": 5729,
      "ness": 5730,
      "ovan": 5731,
      "Ġsva": 5732,
      "Ġstretol": 5733,
      "Ġobjem": 5734,
      "Ġfotograf": 5735,
      "VzhÄ¾adom": 5736,
      "ĠstrÃ¡": 5737,
      "Ġslad": 5738,
      "sna": 5739,
      "Ġtolko": 5740,
      "Ġsprievod": 5741,
      "ĠreÅ¡pekt": 5742,
      "Ġpen": 5743,
      "Ġlac": 5744,
      "ĠnebezpeÄį": 5745,
      "ĠotvÃ¡ra": 5746,
      "ĠbeÅ¾nÃ©": 5747,
      "MA": 5748,
      "ĠDaniel": 5749,
      "pon": 5750,
      "ĠGi": 5751,
      "Ġtvorbu": 5752,
      "ile": 5753,
      "ĠnÃ¡vÅ¡tevnÃŃkov": 5754,
      "ĠÄįist": 5755,
      "Ġspracovanie": 5756,
      "Ġfutbalovej": 5757,
      "ĠkupujÃºci": 5758,
      "Ã¡vajÃº": 5759,
      "jÃºcu": 5760,
      "Ġzistili": 5761,
      "Ġmenu": 5762,
      "stÃ¡va": 5763,
      "Ġberie": 5764,
      "ĠjedinÃ©": 5765,
      "nÃŃho": 5766,
      "ĠÃºdaj": 5767,
      "Ġciele": 5768,
      "uf": 5769,
      "ĠIN": 5770,
      "Ġcit": 5771,
      "Ġnud": 5772,
      "Ġteploty": 5773,
      "ĠvÃ½chode": 5774,
      "rovÃ½": 5775,
      "ĠobyvateÄ¾stva": 5776,
      "Ġdetail": 5777,
      "ĠvÃ½beru": 5778,
      "ĠÄįokoÄ¾vek": 5779,
      "ĠsÃŃ": 5780,
      "ĠJÃ¡": 5781,
      "ĠEurÃ³pskeho": 5782,
      "Ġveciach": 5783,
      "Ġother": 5784,
      "Ġmestskej": 5785,
      "BRATISLAVA": 5786,
      "ĠrÃ´znymi": 5787,
      "inami": 5788,
      "ieÅ¥": 5789,
      "ĠnasledujÃºcich": 5790,
      "ĠÅ¡iestich": 5791,
      "Ã¡cii": 5792,
      "ĠorgÃ¡ny": 5793,
      "Pozrite": 5794,
      "ĠprÃŃjemnÃ©": 5795,
      "ĠvysokÃ¡": 5796,
      "ĠvyÅ¡": 5797,
      "pili": 5798,
      "Ġodporu": 5799,
      "tÃ¡n": 5800,
      "Ġdanej": 5801,
      "Ġvidim": 5802,
      "form": 5803,
      "Ġtvrdia": 5804,
      "ĠkresÅ¥an": 5805,
      "Ġopi": 5806,
      "ĠcÃŃ": 5807,
      "zmom": 5808,
      "stru": 5809,
      "Ġreality": 5810,
      "neme": 5811,
      "ĠznÃ¡ma": 5812,
      "ĠQ": 5813,
      "Ġmr": 5814,
      "pp": 5815,
      "Ġmaj": 5816,
      "Ġbojov": 5817,
      "Ġvypad": 5818,
      "zt": 5819,
      "ĠdomÃ¡ce": 5820,
      "Ġpis": 5821,
      "ong": 5822,
      "rite": 5823,
      "kala": 5824,
      "Ġzato": 5825,
      "rate": 5826,
      "ĠsystÃ©my": 5827,
      "Ġsup": 5828,
      "ĠmenÃ¡": 5829,
      "ĠpozostÃ¡va": 5830,
      "ĠhÄ¾ad": 5831,
      "ip": 5832,
      "ĠvydÃ¡": 5833,
      "Ġmoder": 5834,
      "ĠnemusÃŃte": 5835,
      "Ã¤t": 5836,
      "Ġjenom": 5837,
      "ruÅ¾": 5838,
      "ĠkrÃ¡Ä¾ov": 5839,
      "Ġjinak": 5840,
      "fy": 5841,
      "Ġzodpovednosti": 5842,
      "Ġdiese": 5843,
      "Ġbudes": 5844,
      "ĠzabezpeÄįuje": 5845,
      "Ġzodpoved": 5846,
      "Ġmarci": 5847,
      "Ver": 5848,
      "Ġkop": 5849,
      "entov": 5850,
      "ĠmedzinÃ¡rodnej": 5851,
      "gia": 5852,
      "ĠumoÅ¾nÃŃ": 5853,
      "NeskÃ´r": 5854,
      "Ġkurva": 5855,
      "ĠmyslieÅ¥": 5856,
      "ĠpotrebovaÅ¥": 5857,
      "ĠnajvÃ¤ÄįÅ¡ÃŃm": 5858,
      "Nakoniec": 5859,
      "Ġtenis": 5860,
      "Å¾d": 5861,
      "2015": 5862,
      "ĠSla": 5863,
      "Ġsociali": 5864,
      "cel": 5865,
      "ĠEP": 5866,
      "Ġpole": 5867,
      "ĠDom": 5868,
      "Ġplaty": 5869,
      "iteÄ¾": 5870,
      "ction": 5871,
      "ĠobsahujÃº": 5872,
      "Presne": 5873,
      "Ġzeme": 5874,
      "Ġeven": 5875,
      "tle": 5876,
      "Ġodkazy": 5877,
      "cÅ¯": 5878,
      "Ġsudcov": 5879,
      "ĠnavzÃ¡jom": 5880,
      "zra": 5881,
      "ĠvÃ¤ÄįÅ¡ine": 5882,
      "Äįal": 5883,
      "vÃº": 5884,
      "Ġzmluva": 5885,
      "ĠInter": 5886,
      "bÃº": 5887,
      "Ġkvet": 5888,
      "Ġpapier": 5889,
      "Ġway": 5890,
      "TV": 5891,
      "Ġobra": 5892,
      "Ġkone": 5893,
      "ĠIgor": 5894,
      "Ġoblie": 5895,
      "Ġzly": 5896,
      "Ġmega": 5897,
      "Lu": 5898,
      "ĠopatrenÃŃ": 5899,
      "zli": 5900,
      "Ġpostavy": 5901,
      "tÃ¡m": 5902,
      "tkov": 5903,
      "ĠiÅ¡li": 5904,
      "Li": 5905,
      "ĠHDP": 5906,
      "Ġpreprav": 5907,
      "ĠPutin": 5908,
      "Ġpria": 5909,
      "ĠCO": 5910,
      "ckÃ½mi": 5911,
      "ĠAdam": 5912,
      "Ġnach": 5913,
      "ĠvykonÃ¡vaÅ¥": 5914,
      "ĠhistÃ³rie": 5915,
      "ĠchodÃŃ": 5916,
      "ĠnauÄįiÅ¥": 5917,
      "Ġtes": 5918,
      "Ã¡lnymi": 5919,
      "Ġvydanie": 5920,
      "Ġpostavenie": 5921,
      "telne": 5922,
      "enta": 5923,
      "ĠSie": 5924,
      "ĠkandidÃ¡t": 5925,
      "Ġtextom": 5926,
      "Ġkliknite": 5927,
      "ras": 5928,
      "dite": 5929,
      "Ġverziu": 5930,
      "Ġumiest": 5931,
      "ĠnaÅ¡la": 5932,
      "Ġodhad": 5933,
      "ĠAir": 5934,
      "Ġpriestore": 5935,
      "gie": 5936,
      "ĠÄįlÃ¡nky": 5937,
      "Ġfan": 5938,
      "pit": 5939,
      "Ġfarieb": 5940,
      "Ġmatky": 5941,
      "Ġaku": 5942,
      "ĠSom": 5943,
      "Ġpozem": 5944,
      "bami": 5945,
      "stane": 5946,
      "cker": 5947,
      "ĠzÃ¡Å¾itok": 5948,
      "Ġhrali": 5949,
      "tvor": 5950,
      "ĠtvÃ¡ri": 5951,
      "Ġalle": 5952,
      "ĠnechÃ¡": 5953,
      "Ġstru": 5954,
      "keÄı": 5955,
      "novÃ½": 5956,
      "ĠpoÄįÃŃtaÄį": 5957,
      "ĠkÃ³d": 5958,
      "ĠsÃºÄįasÅ¥": 5959,
      "rab": 5960,
      "Ġcelkovej": 5961,
      "Ġdovolenku": 5962,
      "ĠLand": 5963,
      "Ġstretli": 5964,
      "34": 5965,
      "Ġfirme": 5966,
      "ĠvyzeraÅ¥": 5967,
      "Ġhm": 5968,
      "Ġdovo": 5969,
      "ĠvysokÃ½ch": 5970,
      "Ġsila": 5971,
      "ĠLan": 5972,
      "Ġsieti": 5973,
      "ĠkrÃ¡sny": 5974,
      "ĠÅ¡t": 5975,
      "Ġkontrol": 5976,
      "Ġplyn": 5977,
      "Ġsystem": 5978,
      "Ġpal": 5979,
      "enci": 5980,
      "Ġgot": 5981,
      "Ġoci": 5982,
      "Å¾enie": 5983,
      "chovÃ¡": 5984,
      "iar": 5985,
      "covej": 5986,
      "Ġtoo": 5987,
      "Ġdokopy": 5988,
      "Ġvozidlo": 5989,
      "Das": 5990,
      "kÃ©ho": 5991,
      "Ġvytvorili": 5992,
      "Ġid": 5993,
      "Ġwhich": 5994,
      "Ġvyra": 5995,
      "ĠobÄįan": 5996,
      "Å¾nej": 5997,
      "Ġroman": 5998,
      "ĠÄįeskej": 5999,
      "ĠEurÃ³pska": 6000,
      "tÃ©ho": 6001,
      "Ġvyrie": 6002,
      "ÃŁ": 6003,
      "gov": 6004,
      "ĠtelevÃŃzie": 6005,
      "Ġzaru": 6006,
      "Ġvies": 6007,
      "Ġtvorbe": 6008,
      "Ġfestivalu": 6009,
      "Ġzostav": 6010,
      "Ġregu": 6011,
      "ĠmedzinÃ¡rodnÃ½ch": 6012,
      "vok": 6013,
      "tnÃŃ": 6014,
      "ĠLED": 6015,
      "Ġpoklad": 6016,
      "ĠzvÃ¤zu": 6017,
      "Ġoch": 6018,
      "ĠzaÄįnÃº": 6019,
      "Ġiny": 6020,
      "Ġbas": 6021,
      "Ġtepla": 6022,
      "ĠprÃŃrode": 6023,
      "ĠSy": 6024,
      "ĠjanuÃ¡ri": 6025,
      "Ġ56": 6026,
      "ĠSE": 6027,
      "Ġzistil": 6028,
      "ĠpripravenÃ©": 6029,
      "kel": 6030,
      "Ġnormalne": 6031,
      "cÃŃm": 6032,
      "Ġjazdy": 6033,
      "ĠmateriÃ¡ly": 6034,
      "Iba": 6035,
      "Ġly": 6036,
      "Ġpravo": 6037,
      "isa": 6038,
      "ĠzlepÅ¡enie": 6039,
      "Ġzrovna": 6040,
      "hnÃºÅ¥": 6041,
      "Ġstaveb": 6042,
      "Mala": 6043,
      "Rob": 6044,
      "Ġdostat": 6045,
      "ĠnavÅ¡tÃŃviÅ¥": 6046,
      "Jedna": 6047,
      "Ġpochyb": 6048,
      "ĠCi": 6049,
      "bla": 6050,
      "Ġ51": 6051,
      "Ġstarosti": 6052,
      "Ġslovensku": 6053,
      "Å¡enÃŃ": 6054,
      "Ġvych": 6055,
      "ĠprÃŃspevku": 6056,
      "Ġdes": 6057,
      "Prezident": 6058,
      "Ġatrak": 6059,
      "Ġ61": 6060,
      "Ġ53": 6061,
      "gs": 6062,
      "Ġoder": 6063,
      "Ġsval": 6064,
      "ĠstrÃ¡Å¾": 6065,
      "Ġslovenskom": 6066,
      "ĠskonÄįenÃŃ": 6067,
      "Ġchudob": 6068,
      "ĠjeseÅĪ": 6069,
      "enskÃ©": 6070,
      "Ġoslobod": 6071,
      "Ġcykli": 6072,
      "ĠÄ½": 6073,
      "mÃº": 6074,
      "ĠSlovan": 6075,
      "ĠzapÃ¡": 6076,
      "ĠFrancÃºzsku": 6077,
      "Å¡ta": 6078,
      "Ġpsov": 6079,
      "Ġplochy": 6080,
      "ĠnÃ¡vrat": 6081,
      "ĠtÃ©ma": 6082,
      "ĠzaujÃŃma": 6083,
      "Ġoble": 6084,
      "ĠuÄįiteÄ¾ov": 6085,
      "Ġbei": 6086,
      "Ġlud": 6087,
      "55": 6088,
      "Ġnejaku": 6089,
      "neviem": 6090,
      "ĠsezÃ³nu": 6091,
      "ĠGal": 6092,
      "edy": 6093,
      "Ġthen": 6094,
      "Ġmozgu": 6095,
      "ult": 6096,
      "Ã¡ci": 6097,
      "ab": 6098,
      "ĠnevyhnutnÃ©": 6099,
      "ĠzlÃ½": 6100,
      "prÃŃ": 6101,
      "Ġpocity": 6102,
      "hajÃº": 6103,
      "ĠÃºtoÄįnÃŃk": 6104,
      "dis": 6105,
      "ons": 6106,
      "Ġstabili": 6107,
      "Ġtajom": 6108,
      "tÃ¡ch": 6109,
      "vec": 6110,
      "ĠpouÅ¾ÃŃvanie": 6111,
      "ĠTre": 6112,
      "Oni": 6113,
      "ĠvyskÃºÅ¡aÅ¥": 6114,
      "ĠmÃ¡ji": 6115,
      "Ġjazd": 6116,
      "ĠtÃ½mito": 6117,
      "ĠmnoÅ¾stva": 6118,
      "Ġpodstatne": 6119,
      "Ġfurt": 6120,
      "ĠNor": 6121,
      "NuÅ¾": 6122,
      "Ġuplat": 6123,
      "ĠpochopiÅ¥": 6124,
      "Ġhlasy": 6125,
      "ĠodstrÃ¡niÅ¥": 6126,
      "Ġprev": 6127,
      "ĠvyhlÃ¡senÃŃ": 6128,
      "Ġhard": 6129,
      "Ġ52": 6130,
      "Ġkoncent": 6131,
      "Ġpokial": 6132,
      "Ġodpovede": 6133,
      "Ġchlapci": 6134,
      "Ġmora": 6135,
      "Ġzlato": 6136,
      "iera": 6137,
      "Å¡ne": 6138,
      "ĠMas": 6139,
      "ĠvÃ½hody": 6140,
      "ond": 6141,
      "ĠiÅ¡iel": 6142,
      "Spo": 6143,
      "Ġplatia": 6144,
      "ody": 6145,
      "ĠgÃ©": 6146,
      "Ġrozde": 6147,
      "nejÅ¡iu": 6148,
      "Äįas": 6149,
      "Ġmiestnych": 6150,
      "Ġchlapec": 6151,
      "Ġpotrebujeme": 6152,
      "ĠSto": 6153,
      "Ġmena": 6154,
      "Ġakurat": 6155,
      "Ġ57": 6156,
      "Ġideme": 6157,
      "ĠMichael": 6158,
      "ĠnegatÃŃvne": 6159,
      "Ġhim": 6160,
      "Ġvedela": 6161,
      "Ġcant": 6162,
      "Ġzime": 6163,
      "jde": 6164,
      "Ġosobe": 6165,
      "ĠoznaÄįil": 6166,
      "zovala": 6167,
      "NovÃ½": 6168,
      "Ġluxus": 6169,
      "Ġopis": 6170,
      "sam": 6171,
      "ÄİalÅ¡ie": 6172,
      "Ġhnutia": 6173,
      "Ġ95": 6174,
      "Ġtakejto": 6175,
      "ence": 6176,
      "Ve": 6177,
      "Ġlode": 6178,
      "Ġvojna": 6179,
      "zda": 6180,
      "ĠÄıalÅ¡ia": 6181,
      "Ġochrana": 6182,
      "Ġjad": 6183,
      "ĠobrovskÃ©": 6184,
      "ĠpracujÃº": 6185,
      "Michal": 6186,
      "Ġtvorby": 6187,
      "Ġneed": 6188,
      "Ġprejde": 6189,
      "ĠzostaÅ¥": 6190,
      "Ġjedla": 6191,
      "ass": 6192,
      "ĠhlavnÄĽ": 6193,
      "ĠmyslÃŃÅ¡": 6194,
      "Ġdostanete": 6195,
      "Ġzme": 6196,
      "ĠobchodnÃ©": 6197,
      "ruh": 6198,
      "ĠAs": 6199,
      "loval": 6200,
      "Ġchoroby": 6201,
      "ÄįnÃ©mu": 6202,
      "Ġumenie": 6203,
      "Ġnoviny": 6204,
      "ĠstÃ¡t": 6205,
      "ĠsemifinÃ¡le": 6206,
      "100": 6207,
      "ĠakÃ©koÄ¾vek": 6208,
      "TaktieÅ¾": 6209,
      "Ġsuch": 6210,
      "Ġorient": 6211,
      "ĠNitra": 6212,
      "ĠnÃ¡vÅ¡tevu": 6213,
      "Ġprachy": 6214,
      "skymi": 6215,
      "Ġfirmu": 6216,
      "Ġmys": 6217,
      "2016": 6218,
      "ĠihneÄı": 6219,
      "Ġprieskum": 6220,
      "Ġvypla": 6221,
      "pek": 6222,
      "rneho": 6223,
      "Ġnaplno": 6224,
      "ĠpoÄįasie": 6225,
      "ĠobjednÃ¡": 6226,
      "Äİalej": 6227,
      "ĠpÃ´de": 6228,
      "ĠMaÄıarsku": 6229,
      "Mne": 6230,
      "ĠsÃºvis": 6231,
      "Stra": 6232,
      "ĠtrÃ¡": 6233,
      "Ġnemusia": 6234,
      "Ġprogramy": 6235,
      "Ġnom": 6236,
      "ĠbraÅ¥": 6237,
      "ĠBud": 6238,
      "ĠskÃºsenostÃŃ": 6239,
      "ĠmÃ¤so": 6240,
      "ĠpodporiÅ¥": 6241,
      "Uz": 6242,
      "ĠpÃ´vodu": 6243,
      "ĠÄıalÅ¡om": 6244,
      "Ġgene": 6245,
      "Ġ85": 6246,
      "bez": 6247,
      "slu": 6248,
      "mann": 6249,
      "ĠuznÃ¡": 6250,
      "ĠeurÃ³pskej": 6251,
      "ĠuskutoÄį": 6252,
      "ĠÄįloveku": 6253,
      "ĠzdruÅ¾enia": 6254,
      "rv": 6255,
      "Ġmak": 6256,
      "Ġ180": 6257,
      "Ġvecer": 6258,
      "lÃ¡d": 6259,
      "beh": 6260,
      "ĠÃºloh": 6261,
      "ĠÅ¡tart": 6262,
      "ĠmajiteÄ¾": 6263,
      "ĠÄįisto": 6264,
      "KY": 6265,
      "Ġodchod": 6266,
      "ĠÄįakajÃº": 6267,
      "Ġforma": 6268,
      "ĠAS": 6269,
      "Ġmax": 6270,
      "Ġalkoholu": 6271,
      "ĠFrantiÅ¡ek": 6272,
      "ĠstupÅĪov": 6273,
      "hÃ©": 6274,
      "ĠuÄįiÅ¥": 6275,
      "Ġduchov": 6276,
      "ÄįkÃ¡": 6277,
      "Ġrastie": 6278,
      "ĠBri": 6279,
      "NÃ¡sledne": 6280,
      "ĠpÃº": 6281,
      "KaÅ¾dÃ¡": 6282,
      "ĠbÃ¡": 6283,
      "ĠneskorÅ¡ÃŃch": 6284,
      "Ġturnaja": 6285,
      "kovia": 6286,
      "Ġkorek": 6287,
      "ĠvysvetliÅ¥": 6288,
      "ĠRed": 6289,
      "ĠinÅ¡pi": 6290,
      "ĠÅ¡tÃºdium": 6291,
      "vanÃ½ch": 6292,
      "Lo": 6293,
      "ĠGre": 6294,
      "Ġmail": 6295,
      "ĠprÃ¡vne": 6296,
      "ĠreÄįi": 6297,
      "Ġvystup": 6298,
      "Ġvedy": 6299,
      "ĠMari": 6300,
      "ĠdospelÃ½ch": 6301,
      "ĠvyuÅ¾ÃŃvajÃº": 6302,
      "ĠznÃ¡mych": 6303,
      "lam": 6304,
      "prÃ¡v": 6305,
      "Ġvolby": 6306,
      "Ġdav": 6307,
      "vnej": 6308,
      "Ġvyjadrenia": 6309,
      "ica": 6310,
      "Ġnemaju": 6311,
      "ovky": 6312,
      "ĠstejnÄĽ": 6313,
      "ĠkancelÃ¡rie": 6314,
      "dajte": 6315,
      "tÃ¡cia": 6316,
      "Ġobsad": 6317,
      "ĠzÃ¡ujme": 6318,
      "takze": 6319,
      "ĠdievÄįatÃ¡": 6320,
      "Ġkolek": 6321,
      "ĠÅ¡tandard": 6322,
      "Ġakosi": 6323,
      "Ġpretekov": 6324,
      "NaÅ¡a": 6325,
      "Rad": 6326,
      "Ġpraxe": 6327,
      "nÃ¡r": 6328,
      "Äįen": 6329,
      "Ġslovensko": 6330,
      "Ġvor": 6331,
      "ĠokolnostÃŃ": 6332,
      "Ġdosiahla": 6333,
      "Å¾aÅ¥": 6334,
      "ĠpodaÅ¥": 6335,
      "rach": 6336,
      "Ġcer": 6337,
      "ÅĪov": 6338,
      "naÅ¥": 6339,
      "ĠdÃ´kaz": 6340,
      "Ġdosiahli": 6341,
      "ĠtlaÄį": 6342,
      "Ġnerie": 6343,
      "Å¾ky": 6344,
      "stala": 6345,
      "arov": 6346,
      "ĠduÅ¡e": 6347,
      "Ġkas": 6348,
      "Ġtried": 6349,
      "enti": 6350,
      "time": 6351,
      "ĠvÃ½stavby": 6352,
      "eur": 6353,
      "Ġpark": 6354,
      "Ã³ne": 6355,
      "ĠvyjadriÅ¥": 6356,
      "ÄįkÃ¡ch": 6357,
      "tnÃº": 6358,
      "Ġran": 6359,
      "ĠsamotnÃ½": 6360,
      "Ġ58": 6361,
      "tÃŃvneho": 6362,
      "Ġmyslela": 6363,
      "cas": 6364,
      "Ġpripravuje": 6365,
      "Ġkonzerva": 6366,
      "Ġsamostatne": 6367,
      "Ġost": 6368,
      "ĠarmÃ¡da": 6369,
      "ĠkÃºpeÄ¾": 6370,
      "ĠFer": 6371,
      "Ġreklama": 6372,
      "ĠzdravotnÃ©": 6373,
      "Ġdecembri": 6374,
      "ĠodiÅ¡iel": 6375,
      "ĠhorÃº": 6376,
      "ĠnÃ¡klad": 6377,
      "Ġalerg": 6378,
      "vim": 6379,
      "Ġpomohol": 6380,
      "Ġvyhodno": 6381,
      "MusÃŃm": 6382,
      "ĠpovedanÃ©": 6383,
      "nickÃ½": 6384,
      "Ġvybra": 6385,
      "Ġakoze": 6386,
      "Ġdohodli": 6387,
      "Ġpreteky": 6388,
      "ĠnedokÃ¡Å¾e": 6389,
      "Å¥aÅ¾": 6390,
      "ally": 6391,
      "Ġwebovej": 6392,
      "ĠStre": 6393,
      "Ġbecause": 6394,
      "Ġduchu": 6395,
      "Ġspl": 6396,
      "ars": 6397,
      "AK": 6398,
      "amp": 6399,
      "Ġcountry": 6400,
      "Ġupozor": 6401,
      "entom": 6402,
      "ĠpÃ´vod": 6403,
      "Ġkvalite": 6404,
      "ĠnajbliÅ¾Å¡ÃŃch": 6405,
      "Ġdakujem": 6406,
      "Im": 6407,
      "Ð¾": 6408,
      "Ġdopl": 6409,
      "ĠhÃ¡d": 6410,
      "vaniu": 6411,
      "ĠkrÃŃÅ¾": 6412,
      "ĠÅ¡aty": 6413,
      "ĠÃģ": 6414,
      "tas": 6415,
      "Ġobjavil": 6416,
      "Ġsek": 6417,
      "ĠchrÃ¡ni": 6418,
      "Ġkoali": 6419,
      "Ġmigrantov": 6420,
      "ĠnevadÃŃ": 6421,
      "ĠpoznÃ¡m": 6422,
      "ĠrozprÃ¡vaÅ¥": 6423,
      "rant": 6424,
      "Ġniekam": 6425,
      "Ġlietadla": 6426,
      "Ġokraj": 6427,
      "senie": 6428,
      "Ġmodely": 6429,
      "Ġsay": 6430,
      "MusÃŃme": 6431,
      "ĠÄ¾ah": 6432,
      "ily": 6433,
      "Ġpoplatok": 6434,
      "ĠÅłtefan": 6435,
      "ĠsluÅ¾ba": 6436,
      "tickom": 6437,
      "ĠponÃºkame": 6438,
      "Ġprvy": 6439,
      "ovÃ©mu": 6440,
      "Ġdomy": 6441,
      "ĠnÃ¡roÄįnÃ©": 6442,
      "Ġpoistenie": 6443,
      "ĠchÃ½baÅ¥": 6444,
      "ĠYorku": 6445,
      "jek": 6446,
      "Ġbro": 6447,
      "ĠsnaÅ¾il": 6448,
      "cep": 6449,
      "Ġtlaku": 6450,
      "Ġblogu": 6451,
      "ĠJas": 6452,
      "ĠzaÄįÃŃnajÃº": 6453,
      "Ġdoprav": 6454,
      "ĠoÄįami": 6455,
      "ĠZÃ¡pad": 6456,
      "ajÃº": 6457,
      "vÃ¡m": 6458,
      "ĠdÃ´chodku": 6459,
      "ĠzÃ¡visÃŃ": 6460,
      "ĠneznÃ¡": 6461,
      "Ġnestalo": 6462,
      "ovci": 6463,
      "ĠMÃ¡ria": 6464,
      "ĠFu": 6465,
      "hel": 6466,
      "Ġkamo": 6467,
      "Ġadres": 6468,
      "ĠmÃº": 6469,
      "PolÃŃcia": 6470,
      "Ġpracovnej": 6471,
      "Ġriadi": 6472,
      "burg": 6473,
      "ĠnÃ¡vrhy": 6474,
      "Ġpolicajtov": 6475,
      "ĠorganizÃ¡ciÃŃ": 6476,
      "ĠpouÅ¾i": 6477,
      "ĠÃºrovne": 6478,
      "ĠÅ¡port": 6479,
      "ĠzÃ¡pis": 6480,
      "Ġtextu": 6481,
      "Ġdobra": 6482,
      "ters": 6483,
      "?,": 6484,
      "Ġzbav": 6485,
      "Ġupra": 6486,
      "Ġrela": 6487,
      "PrvÃ©": 6488,
      "Å¥ah": 6489,
      "day": 6490,
      "ickÃº": 6491,
      "Ġkvali": 6492,
      "Ġkartu": 6493,
      "con": 6494,
      "rid": 6495,
      "ĠvraÅ¾dy": 6496,
      "Ġlive": 6497,
      "Ġoko": 6498,
      "cova": 6499,
      "ĠNitre": 6500,
      "Ġruka": 6501,
      "ĠVÃ¡": 6502,
      "48": 6503,
      "An": 6504,
      "ĠhovorÃŃm": 6505,
      "poÄį": 6506,
      "mili": 6507,
      "ĠdÃ´leÅ¾itÃ½": 6508,
      "ĠchrÃ¡niÅ¥": 6509,
      "ĠMinisterstvo": 6510,
      "Ġnebudete": 6511,
      "Ex": 6512,
      "32": 6513,
      "Ġnovembri": 6514,
      "Ġprodu": 6515,
      "ĠAnna": 6516,
      "all": 6517,
      "ĠkoÅ¾e": 6518,
      "Ġchodia": 6519,
      "ns": 6520,
      "ĠrozpoÄįet": 6521,
      "Ġurobila": 6522,
      "ĠstarÅ¡ÃŃ": 6523,
      "Ġmodelov": 6524,
      "ĠPav": 6525,
      "ĠPavel": 6526,
      "Ġtradi": 6527,
      "rovÃ½ch": 6528,
      "Ġplati": 6529,
      "ĠveÄ¾kÃ©ho": 6530,
      "way": 6531,
      "ĠIzrael": 6532,
      "ĠotÃ¡zok": 6533,
      "Ġrezortu": 6534,
      "Ġprirodzene": 6535,
      "Ġtor": 6536,
      "Ġmix": 6537,
      "iv": 6538,
      "ĠkoalÃŃcie": 6539,
      "ĠbeÅ¾": 6540,
      "Ġdajte": 6541,
      "enskej": 6542,
      "Ġpolovica": 6543,
      "PonÃºkame": 6544,
      "ĠdovoliÅ¥": 6545,
      "¹": 6546,
      "Ã©rov": 6547,
      "Ġaf": 6548,
      "kÅ¯": 6549,
      "Ġmusim": 6550,
      "Ġkol": 6551,
      "CI": 6552,
      "Ġdepartemente": 6553,
      "Ġbet": 6554,
      "ĠBlack": 6555,
      "ĠrozhodnutÃŃ": 6556,
      "ĠOpen": 6557,
      "ĠdrÅ¾aÅ¥": 6558,
      "Ġvide": 6559,
      "Ġspev": 6560,
      "ĠoÄįakÃ¡vania": 6561,
      "Ġistotu": 6562,
      "ĠJeÅ¾iÅ¡": 6563,
      "Ġmodelu": 6564,
      "Ġregistra": 6565,
      "ĠkniÅ¾": 6566,
      "Ġfas": 6567,
      "Ġulice": 6568,
      "Ġuverej": 6569,
      "Ġvybrali": 6570,
      "ĠgenerÃ¡lny": 6571,
      "Ġsrd": 6572,
      "Moja": 6573,
      "Ġviedol": 6574,
      "ĠÅ¾iaci": 6575,
      "ĠefektÃŃvne": 6576,
      "ĠÄįÃŃ": 6577,
      "dat": 6578,
      "Ġuprav": 6579,
      "ĠÅ¡tÃ¡tny": 6580,
      "Ġdrevo": 6581,
      "bÃ¡ch": 6582,
      "ĠpredstaviteÄ¾ov": 6583,
      "tur": 6584,
      "ĠsnaÅ¾iÅ¥": 6585,
      "ĠnenÃ¡": 6586,
      "ĠoznaÄį": 6587,
      "skov": 6588,
      "cna": 6589,
      "Ġpomohli": 6590,
      "Å¾te": 6591,
      "Ġprever": 6592,
      "ĠrelatÃŃvne": 6593,
      "ĠvÃ½Å¡ku": 6594,
      "Ġhranicu": 6595,
      "Mil": 6596,
      "KÃº": 6597,
      "ire": 6598,
      "udi": 6599,
      "inÃ¡ch": 6600,
      "Ġmozu": 6601,
      "ĠleÅ¾ÃŃ": 6602,
      "ĠinformovaÅ¥": 6603,
      "ĠRady": 6604,
      "ĠvÃ½robcov": 6605,
      "ĠCy": 6606,
      "Ġstaci": 6607,
      "Ġdopravu": 6608,
      "pala": 6609,
      "Ġmiestom": 6610,
      "our": 6611,
      "Ġprez": 6612,
      "VlÃ¡da": 6613,
      "ĠvÃ½bere": 6614,
      "Ġlt": 6615,
      "skÃ¡ch": 6616,
      "CE": 6617,
      "ĠkonÃ¡": 6618,
      "Ġnebudeme": 6619,
      "jÃºcimi": 6620,
      "Ġtyka": 6621,
      "Pan": 6622,
      "nÃŃc": 6623,
      "Ġnemalo": 6624,
      "ĠstÃ´l": 6625,
      "Ġidenti": 6626,
      "Ġoby": 6627,
      "Ġbohat": 6628,
      "Au": 6629,
      "ĠprÃº": 6630,
      "Ġals": 6631,
      "tus": 6632,
      "Ġstri": 6633,
      "Va": 6634,
      "ĠveÄ¾ko": 6635,
      "ĠprÃŃbehu": 6636,
      "Ġcode": 6637,
      "ĠvÃ½robe": 6638,
      "ĠvyhlÃ¡senie": 6639,
      "Ġvysvetlil": 6640,
      "Ġpokojne": 6641,
      "kro": 6642,
      "ĠOK": 6643,
      "Ġ89": 6644,
      "ĠvÅ¡echny": 6645,
      "edi": 6646,
      "zol": 6647,
      "mam": 6648,
      "Ġpristup": 6649,
      "ĠpreÅ¡iel": 6650,
      "ĠJaroslav": 6651,
      "Ġdovtedy": 6652,
      "Ġ66": 6653,
      "ÄįnosÅ¥": 6654,
      "ĠrieÅ¡i": 6655,
      "Ano": 6656,
      "ĠzdravÃŃ": 6657,
      "ovacieho": 6658,
      "iace": 6659,
      "ĠprÃŃprave": 6660,
      "ĠKotleba": 6661,
      "bur": 6662,
      "ĠtakÃºto": 6663,
      "ĠJakub": 6664,
      "ĠstÃ¡l": 6665,
      "met": 6666,
      "ĠdÄĽlat": 6667,
      "ĠÅĻ": 6668,
      "Ġdufam": 6669,
      "Ġreal": 6670,
      "Ġzviera": 6671,
      "Ġuns": 6672,
      "ĠZo": 6673,
      "ĠvyhrÃ¡": 6674,
      "ĠpouÅ¾itia": 6675,
      "hm": 6676,
      "Ġodvod": 6677,
      "mila": 6678,
      "ĠbeÅ¾ne": 6679,
      "Ġkusov": 6680,
      "nickej": 6681,
      "ĠÄįastejÅ¡ie": 6682,
      "prÃ¡": 6683,
      "ĠPoÄ¾sku": 6684,
      "Ġlink": 6685,
      "Ġzastup": 6686,
      "Ġvyv": 6687,
      "dok": 6688,
      "Ãºt": 6689,
      "ĠAm": 6690,
      "Ġnesp": 6691,
      "tiky": 6692,
      "ctvo": 6693,
      "ĠurÄįitÃ©": 6694,
      "tÃŃvnu": 6695,
      "ĠÅ¡tÃ¡tne": 6696,
      "Ġvidno": 6697,
      "Ġpomer": 6698,
      "Ġnosi": 6699,
      "ĠÅ¡portov": 6700,
      "Ġprepad": 6701,
      "Ġpubli": 6702,
      "pes": 6703,
      "ĠjesÅ¥": 6704,
      "gom": 6705,
      "kajÃº": 6706,
      "ĠvlastnÃ½m": 6707,
      "stika": 6708,
      "Å¾nÃ¡": 6709,
      "Ġkrku": 6710,
      "Ġinvest": 6711,
      "ĠvÃŃna": 6712,
      "hala": 6713,
      "Ġnet": 6714,
      "Ġuk": 6715,
      "aja": 6716,
      "slo": 6717,
      "Ġnorm": 6718,
      "Ġdro": 6719,
      "Ġdostalo": 6720,
      "stran": 6721,
      "Ġpodrob": 6722,
      "odi": 6723,
      "ÄĮÃŃm": 6724,
      "Ġobyvatelia": 6725,
      "Ġcelo": 6726,
      "ĠvoÄ¾nÃ½": 6727,
      "It": 6728,
      "ĠkÅķ": 6729,
      "teraz": 6730,
      "Ġprieskumu": 6731,
      "Ġpova": 6732,
      "top": 6733,
      "Ġdekla": 6734,
      "ĠUnited": 6735,
      "Ġnejsou": 6736,
      "dil": 6737,
      "rÃ¡l": 6738,
      "Ġtrosku": 6739,
      "MI": 6740,
      "ĠreÄį": 6741,
      "ĠrastÃº": 6742,
      "Ġdivadlo": 6743,
      "ĠzÃ¡ujmy": 6744,
      "ĠHD": 6745,
      "lost": 6746,
      "moch": 6747,
      "ĠspokojnÃ½": 6748,
      "Ġoslov": 6749,
      "ĠvÃ¤z": 6750,
      "Ġprom": 6751,
      "Ġrukou": 6752,
      "ĠPetr": 6753,
      "nutÃ½ch": 6754,
      "ciam": 6755,
      "ĠchvÃŃle": 6756,
      "nanie": 6757,
      "Ã³z": 6758,
      "vÃ©ho": 6759,
      "Ġsteny": 6760,
      "Oh": 6761,
      "Najviac": 6762,
      "ĠprÃ¡cou": 6763,
      "Ġmulti": 6764,
      "nejÅ¡ieho": 6765,
      "ĠMariÃ¡n": 6766,
      "Ġzapad": 6767,
      "Ġwieder": 6768,
      "Ze": 6769,
      "Ġtrans": 6770,
      "Ġzjav": 6771,
      "ĠostÃ¡va": 6772,
      "Ġdokaz": 6773,
      "Ġprac": 6774,
      "ĠBlaha": 6775,
      "Å¡ek": 6776,
      "padne": 6777,
      "Pozri": 6778,
      "ĠorgÃ¡n": 6779,
      "ĠÅ¡tudenti": 6780,
      "Ġvyna": 6781,
      "keby": 6782,
      "ĠvznikÃ¡": 6783,
      "Ġperson": 6784,
      "ĠPal": 6785,
      "Ġbiznis": 6786,
      "pec": 6787,
      "Ġruskej": 6788,
      "ĠschopnÃŃ": 6789,
      "Ġpripravili": 6790,
      "Ã¡tor": 6791,
      "ĠstretnÃºÅ¥": 6792,
      "Chcel": 6793,
      "rec": 6794,
      "ĠsamÃ©": 6795,
      "Ġludom": 6796,
      "Ġvyber": 6797,
      "ĠWar": 6798,
      "37": 6799,
      "Ġzaka": 6800,
      "ĠvzdelÃ¡vanie": 6801,
      "ĠÄ¾ahÅ¡ie": 6802,
      "Ġreakcie": 6803,
      "ĠBBC": 6804,
      "Ġdown": 6805,
      "Ġhovori": 6806,
      "ovanou": 6807,
      "ĠhodnÄĽ": 6808,
      "Ġspa": 6809,
      "Ġboha": 6810,
      "Ġbyte": 6811,
      "Ġimmer": 6812,
      "Ġlimit": 6813,
      "cet": 6814,
      "ĠZu": 6815,
      "Ġpostele": 6816,
      "Ġbiele": 6817,
      "Ġmater": 6818,
      "Ġodpadu": 6819,
      "Ġvykon": 6820,
      "ried": 6821,
      "Ġdvor": 6822,
      "ĠPRO": 6823,
      "Dr": 6824,
      "ĠUkrajine": 6825,
      "ĠSMER": 6826,
      "VeÄ¾a": 6827,
      "ĠinvestÃŃcie": 6828,
      "ĠhÄ¾adÃ¡": 6829,
      "xa": 6830,
      "ĠregiÃ³nu": 6831,
      "rÃ³": 6832,
      "enskÃ½": 6833,
      "Ġkov": 6834,
      "ell": 6835,
      "ings": 6836,
      "ĠobrovskÃ½": 6837,
      "ĠroÄįnÃŃku": 6838,
      "nka": 6839,
      "ĠzdravÃ©": 6840,
      "Ġautobus": 6841,
      "Ġaktuali": 6842,
      "ÅĪami": 6843,
      "wan": 6844,
      "ĠVol": 6845,
      "Ġcie": 6846,
      "ĠjÃºni": 6847,
      "ĠpracovnÃ©ho": 6848,
      "plÃ¡": 6849,
      "ĠspomÃŃna": 6850,
      "Ġkonferencie": 6851,
      "Ha": 6852,
      "rim": 6853,
      "Ġmono": 6854,
      "2014": 6855,
      "Ġhlboko": 6856,
      "Ġdynami": 6857,
      "ĠgÃ³ly": 6858,
      "Ġdalsi": 6859,
      "atu": 6860,
      "ÄįnÄĽ": 6861,
      "aru": 6862,
      "Ġniet": 6863,
      "kin": 6864,
      "ĠtÃŃto": 6865,
      "ĠvyrÃ¡ba": 6866,
      "Ġvia": 6867,
      "Ġ99": 6868,
      "TÃºto": 6869,
      "covÃ©": 6870,
      "ĠBy": 6871,
      "ĠpÃ³": 6872,
      "Pokud": 6873,
      "ĠBoris": 6874,
      "Ġpartnerov": 6875,
      "Ġpriznal": 6876,
      "Ġnevieme": 6877,
      "ĠWindows": 6878,
      "ĠvykonÃ¡": 6879,
      "ĠsÃºpera": 6880,
      "ĠVoj": 6881,
      "ĠBel": 6882,
      "Ġbonus": 6883,
      "ĠÃºlohou": 6884,
      "Ġright": 6885,
      "Ġlid": 6886,
      "rub": 6887,
      "poch": 6888,
      "ĠDO": 6889,
      "Minister": 6890,
      "Ġfil": 6891,
      "Ġpali": 6892,
      "OZ": 6893,
      "Kri": 6894,
      "ĠinformÃ¡ciu": 6895,
      "ĠdomÃ¡ceho": 6896,
      "Dom": 6897,
      "hodne": 6898,
      "fen": 6899,
      "Ġzisku": 6900,
      "ĠtakÃ½m": 6901,
      "Ġjav": 6902,
      "Ġend": 6903,
      "Ġvydal": 6904,
      "Ġnajlepsie": 6905,
      "ĠnajniÅ¾Å¡ÃŃ": 6906,
      "roÄįnÃ©": 6907,
      "Ġmozne": 6908,
      "HA": 6909,
      "Ġsumy": 6910,
      "lÃŃme": 6911,
      "ÄĮasto": 6912,
      "novÃ¡": 6913,
      "ĠvtÃ¡": 6914,
      "Å¡nÃ½": 6915,
      "war": 6916,
      "Ġzaklad": 6917,
      "Ni": 6918,
      "ĠÄĮesko": 6919,
      "ĠposlednÃº": 6920,
      "rol": 6921,
      "Ġdisk": 6922,
      "Ġkopec": 6923,
      "lovÃ©ho": 6924,
      "Ġpolovice": 6925,
      "Ġkostol": 6926,
      "Ġmuch": 6927,
      "Ġdavno": 6928,
      "ĠteÅ¡iÅ¥": 6929,
      "ĠdarÃŃ": 6930,
      "lÃŃm": 6931,
      "ĠzvÃ¤z": 6932,
      "Ġvs": 6933,
      "Ġnapadlo": 6934,
      "ĠpomÃ¡hajÃº": 6935,
      "ĠamerickÃ©": 6936,
      "aty": 6937,
      "ĠpreÄįÃŃtaÅ¥": 6938,
      "Ġplu": 6939,
      "ĠtechnolÃ³giÃŃ": 6940,
      "Ġplnej": 6941,
      "hody": 6942,
      "ĠkamarÃ¡t": 6943,
      "ĠÄĮÃŃne": 6944,
      "love": 6945,
      "ĠzdravÃ½": 6946,
      "Ġtip": 6947,
      "ÄįÃ¡k": 6948,
      "ĠPat": 6949,
      "Ġprojek": 6950,
      "nikom": 6951,
      "lenej": 6952,
      "ĠlekÃ¡ra": 6953,
      "Ġvojaci": 6954,
      "Deti": 6955,
      "Ġprofesor": 6956,
      "ĠnajvyÅ¡Å¡ÃŃ": 6957,
      "ĠodchÃ¡dza": 6958,
      "Ġidiot": 6959,
      "enych": 6960,
      "Ġsprch": 6961,
      "If": 6962,
      "ĠÄįeskÃ½ch": 6963,
      "Ġnomin": 6964,
      "imi": 6965,
      "Ġzbor": 6966,
      "ĠnehnuteÄ¾nosti": 6967,
      "ĠPodÄ¾a": 6968,
      "Ġ700": 6969,
      "Ã©ria": 6970,
      "Ġizbe": 6971,
      "Ġnerv": 6972,
      "ĠÅ¾iaÄ¾": 6973,
      "ĠEn": 6974,
      "ĠprÃŃrodnÃ©": 6975,
      "ney": 6976,
      "ĠlekÃ¡rov": 6977,
      "Ġvzdelanie": 6978,
      "Ġturistov": 6979,
      "kovanÃ©": 6980,
      "Ġ09": 6981,
      "Ġvazne": 6982,
      "ĠMich": 6983,
      "nÃŃctvo": 6984,
      "ĠkombinÃ¡cii": 6985,
      "ĠzbytoÄįne": 6986,
      "ĠpoÅ¾ad": 6987,
      "ump": 6988,
      "ĠhodÃŃ": 6989,
      "cest": 6990,
      "Podobne": 6991,
      "Ġdoprava": 6992,
      "ĠpodobnÃ½": 6993,
      "ÄįujÃº": 6994,
      "kup": 6995,
      "Ġtane": 6996,
      "Äįlen": 6997,
      "ĠjednoduchÃ½": 6998,
      "tivi": 6999,
      "Ġ02": 7000,
      "ĠvyrieÅ¡iÅ¥": 7001,
      "Ġtvrdo": 7002,
      "ovanÃ½mi": 7003,
      "Ġobran": 7004,
      "ĠPÃ¡": 7005,
      "Ġakcii": 7006,
      "ĠspÃ´sobuje": 7007,
      "Ġthese": 7008,
      "ĠpenÃŃze": 7009,
      "tivne": 7010,
      "ĠÃºpravy": 7011,
      "ĠodporÃºÄįa": 7012,
      "Ġosad": 7013,
      "ĠprimÃ¡tor": 7014,
      "Ġtvrd": 7015,
      "ĠvÃ½robcu": 7016,
      "Hlavne": 7017,
      "ĠzÃ¡pal": 7018,
      "Ġpovod": 7019,
      "Ġktoru": 7020,
      "low": 7021,
      "ĠÅ¡tÃºdie": 7022,
      "ĠvaÅ¡om": 7023,
      "bec": 7024,
      "Ġdefin": 7025,
      "kr": 7026,
      "ĠÃºst": 7027,
      "ĠÅ¡tati": 7028,
      "ĠSal": 7029,
      "ĠnÃ¡sil": 7030,
      "Ġklube": 7031,
      "Ġstrede": 7032,
      "Ġrodi": 7033,
      "prac": 7034,
      "Ġserver": 7035,
      "ĠKan": 7036,
      "2013": 7037,
      "BO": 7038,
      "ĠpoloÅ¾enÃ½": 7039,
      "Ġdik": 7040,
      "Ġsne": 7041,
      "Ġstraty": 7042,
      "ĠtreÅ¥om": 7043,
      "09": 7044,
      "Ġpoplatky": 7045,
      "Ġfal": 7046,
      "ĠVaÅ¡ej": 7047,
      "200": 7048,
      "Ġzaznamen": 7049,
      "NÃ¡Å¡": 7050,
      "UM": 7051,
      "Ġhrani": 7052,
      "Ġzmenil": 7053,
      "ĠbezpeÄįnostnÃ©": 7054,
      "ĠbrankÃ¡r": 7055,
      "Ġakom": 7056,
      "ĠukÃ¡Å¾e": 7057,
      "ĠtakÃŃ": 7058,
      "ĠkameÅĪ": 7059,
      "the": 7060,
      "ĠEd": 7061,
      "05": 7062,
      "Ġreklamy": 7063,
      "Ġsia": 7064,
      "ĠzvlÃ¡Å¡Å¥": 7065,
      "ĠinÅ¡titÃºcie": 7066,
      "ĠpriniesÅ¥": 7067,
      "ĠtakÃ½mto": 7068,
      "Ġlisty": 7069,
      "iam": 7070,
      "IP": 7071,
      "anovi": 7072,
      "rea": 7073,
      "ĠVerba": 7074,
      "ĠoktÃ³bri": 7075,
      "ĠzabrÃ¡niÅ¥": 7076,
      "Ġopat": 7077,
      "Ġistej": 7078,
      "zla": 7079,
      "ĠJed": 7080,
      "ĠotvorenÃ©": 7081,
      "ovcov": 7082,
      "Ġskry": 7083,
      "ĠurobÃŃ": 7084,
      "ĠIII": 7085,
      "tich": 7086,
      "Ġsle": 7087,
      "HneÄı": 7088,
      "Ġzatvor": 7089,
      "ĠuÅ¾i": 7090,
      "ĠPen": 7091,
      "strov": 7092,
      "Ġfunkcii": 7093,
      "Ġprinesie": 7094,
      "Ġfinanc": 7095,
      "Ġpriam": 7096,
      "sej": 7097,
      "Ġzuby": 7098,
      "Ġodohral": 7099,
      "Ġdodala": 7100,
      "ĠÄ¾": 7101,
      "ĠpracovnÃ½": 7102,
      "ĠponÃºknuÅ¥": 7103,
      "ĠpohÃ¡r": 7104,
      "ĠoblastÃŃ": 7105,
      "ĠtrvaÅ¥": 7106,
      "Ġsuma": 7107,
      "Ġpul": 7108,
      "Ġalso": 7109,
      "Najprv": 7110,
      "49": 7111,
      "ĠFB": 7112,
      "Ġded": 7113,
      "Ġzob": 7114,
      "oda": 7115,
      "ĠsedÃŃ": 7116,
      "ĠrÃ½chlosti": 7117,
      "ĠÅĻe": 7118,
      "Ġzjavne": 7119,
      "ede": 7120,
      "Ġvybavenie": 7121,
      "ĠaprÃŃli": 7122,
      "rovo": 7123,
      "Ġzlodej": 7124,
      "Ġvyho": 7125,
      "ĠvoliÄįi": 7126,
      "ĠistÃ¡": 7127,
      "Ġvojnu": 7128,
      "Jen": 7129,
      "ĠpamÃ¤Å¥": 7130,
      "ĠÄįa": 7131,
      "ĠvÅ¡echno": 7132,
      "Ġstres": 7133,
      "ĠzvyÅ¡ok": 7134,
      "Ġvyd": 7135,
      "Ġfinan": 7136,
      "Ġsposob": 7137,
      "ĠodporÃºÄįame": 7138,
      "ĠzÃº": 7139,
      "Ġzvu": 7140,
      "Ġmode": 7141,
      "nemu": 7142,
      "ĠPavla": 7143,
      "Fi": 7144,
      "rost": 7145,
      "itÃ©": 7146,
      "NasledujÃºci": 7147,
      "Ġbiskup": 7148,
      "Ġmestom": 7149,
      "ĠMag": 7150,
      "ĠÅ¡tÃ¡tom": 7151,
      "Ġrevolu": 7152,
      "chi": 7153,
      "Ġfarbe": 7154,
      "Ġpriemyslu": 7155,
      "ĠvÃ½nimkou": 7156,
      "ĠzloÅ¾ky": 7157,
      "ĠÅ¾elezni": 7158,
      "ĠnÃ¡vÅ¡tevy": 7159,
      "EK": 7160,
      "Ġdych": 7161,
      "Ġdokumenty": 7162,
      "ĠvyÅ¡et": 7163,
      "ÄįÃŃta": 7164,
      "ĠpoÅ¾iadaÅ¥": 7165,
      "Ġzahra": 7166,
      "mp": 7167,
      "Äıa": 7168,
      "ĠvzdialenosÅ¥": 7169,
      "La": 7170,
      "Ġdiploma": 7171,
      "ĠhrÃ¡Äįom": 7172,
      "lete": 7173,
      "SkÃº": 7174,
      "Ġmajster": 7175,
      "Ġfotku": 7176,
      "ĠmnoÅ¾stvom": 7177,
      "ĠBanskÃ¡": 7178,
      "Ġusad": 7179,
      "ĠnovinÃ¡rov": 7180,
      "Ġmlieko": 7181,
      "Ġpredmetom": 7182,
      "ĠvnÃºtro": 7183,
      "novÃ½ch": 7184,
      "VerÃŃm": 7185,
      "ĠplÃ¡ny": 7186,
      "Ġvracia": 7187,
      "Ġopera": 7188,
      "Ġjem": 7189,
      "neÅ¡": 7190,
      "stiky": 7191,
      "ĠdomÃ¡cej": 7192,
      "atia": 7193,
      "ĠvÅ¡etkom": 7194,
      "ĠKla": 7195,
      "KdyÅ¾": 7196,
      "Ġsektor": 7197,
      "tenÃ©": 7198,
      "ĠproblÃ©mu": 7199,
      "Ġkuchyn": 7200,
      "ĠbohuÅ¾iaÄ¾": 7201,
      "bÄĽ": 7202,
      "Ġnarodil": 7203,
      "Ġsnehu": 7204,
      "Ġprace": 7205,
      "ĠtakÃ©ho": 7206,
      "Ġklad": 7207,
      "dÃ¡m": 7208,
      "tÃ¡ciu": 7209,
      "Ġrozo": 7210,
      "Ġrano": 7211,
      "ĠpoÅ¾iadaviek": 7212,
      "Ġzamestnanci": 7213,
      "rova": 7214,
      "ĠdcÃ©ra": 7215,
      "Ð°": 7216,
      "Ġzvyk": 7217,
      "obe": 7218,
      "ĠWal": 7219,
      "38": 7220,
      "ProsÃŃm": 7221,
      "ĠODS": 7222,
      "Ġpatri": 7223,
      "har": 7224,
      "ĠdefinitÃŃvne": 7225,
      "oby": 7226,
      "ans": 7227,
      "Ru": 7228,
      "SlovenskÃ½": 7229,
      "zila": 7230,
      "ĠzbaviÅ¥": 7231,
      "ĠvyhraÅ¥": 7232,
      "ĠÄįistÃ½": 7233,
      "Nepo": 7234,
      "Ġobdiv": 7235,
      "ĠKam": 7236,
      "Ġreklam": 7237,
      "ĠdlhÃ½": 7238,
      "ĠprÃŃrodnÃ½ch": 7239,
      "nÃŃctva": 7240,
      "Ġvyhrali": 7241,
      "ply": 7242,
      "rovanÃ©": 7243,
      "Ġpreklad": 7244,
      "ovacej": 7245,
      "RI": 7246,
      "Ġwebe": 7247,
      "ĠzbraÅĪ": 7248,
      "Ġmalej": 7249,
      "ĠÃºÄįtu": 7250,
      "ĠfebruÃ¡ri": 7251,
      "Å¡ilo": 7252,
      "Ġpripadne": 7253,
      "lena": 7254,
      "ĠvÃ½hÄ¾ad": 7255,
      "fek": 7256,
      "Ġodpoved": 7257,
      "ĠtechnickÃ©": 7258,
      "Ġnemeckej": 7259,
      "panie": 7260,
      "Ġzdrojom": 7261,
      "kul": 7262,
      "Ġfyzi": 7263,
      "Ġhodnotenie": 7264,
      "Ġverzie": 7265,
      "Ġelektriny": 7266,
      "ĠmusÃŃÅ¡": 7267,
      "Ġpartnera": 7268,
      "Ġpode": 7269,
      "ĠmiliÃ³n": 7270,
      "sah": 7271,
      "ĠVianoce": 7272,
      "Ġcy": 7273,
      "tici": 7274,
      "km": 7275,
      "Ġneh": 7276,
      "ĠnÃ¡hrad": 7277,
      "ĠnaspÃ¤Å¥": 7278,
      "Ġlinky": 7279,
      "ĠzlepÅ¡iÅ¥": 7280,
      "ĠVan": 7281,
      "ĠÅ¡kol": 7282,
      "ĠÃºtoky": 7283,
      "ĠtÃ©me": 7284,
      "ĠÅ¥ah": 7285,
      "sny": 7286,
      "Ġnah": 7287,
      "livosÅ¥": 7288,
      "ĠpredstavujÃº": 7289,
      "Jozef": 7290,
      "Ġzapoj": 7291,
      "Ġnijak": 7292,
      "OP": 7293,
      "Ġvyslov": 7294,
      "ĠvÃŃce": 7295,
      "Ġinternetovej": 7296,
      "rop": 7297,
      "ĠES": 7298,
      "ĠÅ¡tÃ½le": 7299,
      "Ġvybral": 7300,
      "Ġodbornej": 7301,
      "Ġexperiment": 7302,
      "jazd": 7303,
      "Ġcim": 7304,
      "ĠpokoÅ¾ky": 7305,
      "vnÃ©": 7306,
      "Ġvyrob": 7307,
      "sat": 7308,
      "ĠDar": 7309,
      "Ġpovolenie": 7310,
      "DÃ´vodom": 7311,
      "Ġ1990": 7312,
      "Ġdomova": 7313,
      "ĠvÄįas": 7314,
      "tivity": 7315,
      "Ġvelky": 7316,
      "Ġvytvoril": 7317,
      "zovanÃ¡": 7318,
      "slov": 7319,
      "Ġuzatvor": 7320,
      "Ġhlavnom": 7321,
      "ĠvÃ½ro": 7322,
      "ĠpresvedÄįenÃ½": 7323,
      "Ġospravedl": 7324,
      "ĠÅ¾il": 7325,
      "Ġmarketing": 7326,
      "ĠportÃ¡l": 7327,
      "ĠpredÃ¡vajÃºci": 7328,
      "Ġvede": 7329,
      "Ġokien": 7330,
      "Ġdesiatich": 7331,
      "ĠMA": 7332,
      "Ġprocese": 7333,
      "ery": 7334,
      "ciek": 7335,
      "Ġobvod": 7336,
      "Ġhand": 7337,
      "Ġsestra": 7338,
      "Ġinform": 7339,
      "Ġparty": 7340,
      "eniach": 7341,
      "kre": 7342,
      "Ġhoteli": 7343,
      "ĠspÃ´sobiÅ¥": 7344,
      "Ġliekov": 7345,
      "Ġprofesion": 7346,
      "Ã³na": 7347,
      "mot": 7348,
      "skemu": 7349,
      "Ġpozemok": 7350,
      "ĠzvieratÃ¡": 7351,
      "ĠnejakÃ©ho": 7352,
      "ĠkÃºpnej": 7353,
      "rku": 7354,
      "ĠÄįinu": 7355,
      "Ġwell": 7356,
      "Ġpover": 7357,
      "Ġinf": 7358,
      "ĠostatnÃ½mi": 7359,
      "Ġprezent": 7360,
      "ĠdennÃŃka": 7361,
      "Ġstaro": 7362,
      "row": 7363,
      "Ã¡Å¾": 7364,
      "ĠtÃ½kajÃºce": 7365,
      "Ġpokutu": 7366,
      "wor": 7367,
      "ĠukÃ¡zali": 7368,
      "ĠchrÃ¡": 7369,
      "Ġpriatelia": 7370,
      "ĠpÃ´rod": 7371,
      "Ġrozmer": 7372,
      "ĠnechcÃº": 7373,
      "iat": 7374,
      "Ġminulom": 7375,
      "65": 7376,
      "Ġaka": 7377,
      "rian": 7378,
      "hodnÃ©": 7379,
      "Ġmozog": 7380,
      "lob": 7381,
      "Ġvcera": 7382,
      "atie": 7383,
      "ĠtrÃ©ningu": 7384,
      "ĠdÃ¡tum": 7385,
      "ÅĪovali": 7386,
      "pust": 7387,
      "ĠzÃ¡pasoch": 7388,
      "Ġmoznost": 7389,
      "stiach": 7390,
      "ĠreprezentÃ¡cie": 7391,
      "ĠzÃ¡stupca": 7392,
      "Ġkuchyne": 7393,
      "ĠChe": 7394,
      "nesie": 7395,
      "ish": 7396,
      "ĠvziaÅ¥": 7397,
      "ĠotvoriÅ¥": 7398,
      "ĠTh": 7399,
      "ĠdÄºÅ¾ka": 7400,
      "ĠEva": 7401,
      "Ġakcia": 7402,
      "ĠApple": 7403,
      "Ġdohode": 7404,
      "Ġklient": 7405,
      "Å¾ka": 7406,
      "Ġnovy": 7407,
      "ĠakoÅ¾e": 7408,
      "ĠteÅ¡ÃŃm": 7409,
      "ĠÄįasy": 7410,
      "!.": 7411,
      "Ġstoji": 7412,
      "Ġvyhovuje": 7413,
      "Ġrozpore": 7414,
      "Ġdrogy": 7415,
      "ĠÅ¡portovÃ©": 7416,
      "Ġdoporu": 7417,
      "Ġleg": 7418,
      "Î": 7419,
      "ĠnajlepÅ¡ÃŃm": 7420,
      "ĠGer": 7421,
      "Ã©m": 7422,
      "avÃ¡": 7423,
      "Ġdiagnosti": 7424,
      "ĠzniÅ¾uje": 7425,
      "ĠBrit": 7426,
      "Ġnere": 7427,
      "ĠdverÃŃ": 7428,
      "nova": 7429,
      "ujÃºcej": 7430,
      "Ġpomen": 7431,
      "Ġstimu": 7432,
      "Ġplatby": 7433,
      "Ġadded": 7434,
      "Ġosvet": 7435,
      "Ġopatr": 7436,
      "31": 7437,
      "ĠoknÃ¡": 7438,
      "ĠÃºnia": 7439,
      "sud": 7440,
      "Ġhal": 7441,
      "Ġpacient": 7442,
      "Ġvidiet": 7443,
      "Ġdid": 7444,
      "ĠbÃ½vanie": 7445,
      "Ġcar": 7446,
      "Ġnemen": 7447,
      "Ġhodine": 7448,
      "Ġpana": 7449,
      "Ġpredpoklad": 7450,
      "ĠpouÅ¾itÃ©": 7451,
      "LI": 7452,
      "tenÃ½": 7453,
      "ĠzmenÃŃ": 7454,
      "ĠvÃ½davky": 7455,
      "ĠvÃ½stavbu": 7456,
      "ĠporadiÅ¥": 7457,
      "Ġlog": 7458,
      "ĠuteÄįencov": 7459,
      "Ġdel": 7460,
      "Å¡et": 7461,
      "ĠzaujÃŃmavÃ½": 7462,
      "sche": 7463,
      "ĠmedzinÃ¡rodnÃ©": 7464,
      "rujÃº": 7465,
      "ĠsvetovÃ½ch": 7466,
      "Ġreak": 7467,
      "Ġmomente": 7468,
      "Ġvied": 7469,
      "Ġoddych": 7470,
      "ĠGar": 7471,
      "ĠvyuÅ¾ÃŃ": 7472,
      "39": 7473,
      "lav": 7474,
      "SS": 7475,
      "haj": 7476,
      "enÃ©mu": 7477,
      "Ġlietadlo": 7478,
      "OK": 7479,
      "ĠvÃ½robca": 7480,
      "blo": 7481,
      "ĠslÃºÅ¾iÅ¥": 7482,
      "Ã¡lnÄĽ": 7483,
      "zalo": 7484,
      "ĠpredpokladÃ¡": 7485,
      "ĠChar": 7486,
      "ms": 7487,
      "ĠjedinÃ½m": 7488,
      "Ġislam": 7489,
      "Ġ67": 7490,
      "ĠÄįÃŃta": 7491,
      "ĠkatolÃŃ": 7492,
      "ĠMatoviÄį": 7493,
      "Pla": 7494,
      "ME": 7495,
      "Ġkorun": 7496,
      "ĠposlaÅ¥": 7497,
      "kus": 7498,
      "ĠsÃºde": 7499,
      "ĠuvaÅ¾": 7500,
      "sal": 7501,
      "Ġdolu": 7502,
      "Ġzozname": 7503,
      "Svet": 7504,
      "ĠMikulÃ¡Å¡": 7505,
      "Ġcloveka": 7506,
      "Ġobete": 7507,
      "ĠSpi": 7508,
      "ĠnÃ¡jom": 7509,
      "Ġvelke": 7510,
      "PR": 7511,
      "Ġriesit": 7512,
      "ĠHel": 7513,
      "ĠWC": 7514,
      "ĠÅ¡ance": 7515,
      "Ġzdravot": 7516,
      "Ġnesie": 7517,
      "Ġautori": 7518,
      "Ġstanovisko": 7519,
      "ĠznaÄįka": 7520,
      "Ġjemne": 7521,
      "ĠextrÃ©mne": 7522,
      "Ġvyhov": 7523,
      "ÅĪoval": 7524,
      "Ġkrokom": 7525,
      "ĠspoloÄį": 7526,
      "Ġmagne": 7527,
      "ĠpÃ¡peÅ¾": 7528,
      "jev": 7529,
      "ĠÃºÄįinok": 7530,
      "ĠÃºstavu": 7531,
      "ĠFrancÃºzska": 7532,
      "ĠfrancÃºzsky": 7533,
      "Par": 7534,
      "ĠtÃŃme": 7535,
      "Ġovocie": 7536,
      "ÅĪte": 7537,
      "rajte": 7538,
      "ĠhosÅ¥": 7539,
      "ĠtrestnÃ©ho": 7540,
      "Ġpriemere": 7541,
      "ĠRob": 7542,
      "ĠWa": 7543,
      "ĠoznÃ¡menie": 7544,
      "ĠdarÄįek": 7545,
      "Ġnut": 7546,
      "MnohÃŃ": 7547,
      "Ġemo": 7548,
      "Ġvyjde": 7549,
      "ĠstupÅĪa": 7550,
      "Å¾ou": 7551,
      "razÃŃ": 7552,
      "Ġvylep": 7553,
      "Ġziadne": 7554,
      "Ġzber": 7555,
      "ĠÄįeskÃ©ho": 7556,
      "Ġhotelov": 7557,
      "Ġtrend": 7558,
      "ĠzloÄįin": 7559,
      "Ġ1997": 7560,
      "ĠHotels": 7561,
      "Ġpripojenie": 7562,
      "Ġhovorili": 7563,
      "nul": 7564,
      "88": 7565,
      "ĠpomÃ¡haÅ¥": 7566,
      "ĠfunkciÃŃ": 7567,
      "Äįmi": 7568,
      "ĠZA": 7569,
      "ĠFrancÃºzsko": 7570,
      "Ġkal": 7571,
      "tajte": 7572,
      "ovÃŃ": 7573,
      "ĠvozidlÃ¡": 7574,
      "ĠdÃ´vody": 7575,
      "ĠvÃ¤zenia": 7576,
      "Ġstratil": 7577,
      "Ġstrachu": 7578,
      "Ġpouze": 7579,
      "nostiach": 7580,
      "Ġustanov": 7581,
      "Ġpresu": 7582,
      "Ġzoznamu": 7583,
      "hre": 7584,
      "Ġpartnerom": 7585,
      "Ġuva": 7586,
      "Ġprehra": 7587,
      "Ġrecep": 7588,
      "Ġag": 7589,
      "44": 7590,
      "ĠWil": 7591,
      "Ġneme": 7592,
      "Ġjednotka": 7593,
      "Ġzamie": 7594,
      "01": 7595,
      "ĠLondÃ½ne": 7596,
      "Ġviacej": 7597,
      "Ġmis": 7598,
      "Ġhostia": 7599,
      "Ġvan": 7600,
      "Ġdruhou": 7601,
      "ĠÅ¡pi": 7602,
      "ĠrozpoÄį": 7603,
      "ĠMÃ¡": 7604,
      "ĠfotografiÃŃ": 7605,
      "ĠoznÃ¡mila": 7606,
      "ĠpredplatnÃ©": 7607,
      "MajÃº": 7608,
      "ĠKy": 7609,
      "ĠBritÃ¡nii": 7610,
      "ĠAno": 7611,
      "Ġmedia": 7612,
      "ĠumoÅ¾ÅĪujÃº": 7613,
      "tul": 7614,
      "Ġangli": 7615,
      "ĠvyuÄį": 7616,
      "Ġfond": 7617,
      "ĠprokurÃ¡tor": 7618,
      "ĠpoÅĻÃ¡d": 7619,
      "Ġnakup": 7620,
      "Ġtretie": 7621,
      "uer": 7622,
      "ĠzvÃ½Å¡il": 7623,
      "ĠkvalitnÃ½": 7624,
      "Ġposkytne": 7625,
      "hoch": 7626,
      "Ä¾ah": 7627,
      "ĠdÃ´leÅ¾itÃ¡": 7628,
      "Å¾ilo": 7629,
      "Ġalles": 7630,
      "ĠLes": 7631,
      "ĠvyuÅ¾i": 7632,
      "ĠMad": 7633,
      "Ġmany": 7634,
      "ĠJur": 7635,
      "Ġwhere": 7636,
      "Ġcould": 7637,
      "Ġvietor": 7638,
      "Ġherec": 7639,
      "Ona": 7640,
      "tny": 7641,
      "Ġnervy": 7642,
      "Ġzapo": 7643,
      "tore": 7644,
      "ĠtrÃ¡v": 7645,
      "ĠstrÃ¡ca": 7646,
      "vna": 7647,
      "ĠpolitickÃ½": 7648,
      "Ġbaby": 7649,
      "Ġbli": 7650,
      "ÃŃt": 7651,
      "Ġostane": 7652,
      "IK": 7653,
      "Ġlesa": 7654,
      "Ġpredaji": 7655,
      "nickÃ½ch": 7656,
      "Ġchcu": 7657,
      "ĠdÃ¡ta": 7658,
      "ĠÃºspechu": 7659,
      "nicky": 7660,
      "Ġ900": 7661,
      "ĠMit": 7662,
      "ĠsÃºhlasu": 7663,
      "Ġodstav": 7664,
      "Ġbudov": 7665,
      "ĠruskÃ©ho": 7666,
      "gor": 7667,
      "cial": 7668,
      "ĠnadÃ¡": 7669,
      "Ar": 7670,
      "ĠdÅĪom": 7671,
      "teÄ¾nÃ½ch": 7672,
      "Ġsneh": 7673,
      "Ġ59": 7674,
      "ĠpoÄįte": 7675,
      "ĠÅĻÃŃ": 7676,
      "Ġforum": 7677,
      "ĠspisovateÄ¾": 7678,
      "vola": 7679,
      "zin": 7680,
      "Ġtusim": 7681,
      "ĠnemeckÃ½": 7682,
      "ĠcÃŃtim": 7683,
      "ĠindividuÃ¡lne": 7684,
      "ĠTrenÄįÃŃn": 7685,
      "ĠdÃ¡vajÃº": 7686,
      "ĠvÃ½borne": 7687,
      "este": 7688,
      "ther": 7689,
      "ĠUkrajiny": 7690,
      "teho": 7691,
      "Ġsnahe": 7692,
      "ĠposkytujÃº": 7693,
      "ĠÄ¾avi": 7694,
      "ĠCla": 7695,
      "Ġpodujatie": 7696,
      "Ġks": 7697,
      "Ġhro": 7698,
      "ĠzÃ¡bav": 7699,
      "ĠangaÅ¾": 7700,
      "Ġteplota": 7701,
      "Ġkomunika": 7702,
      "Ġtur": 7703,
      "kÃ¡n": 7704,
      "This": 7705,
      "ls": 7706,
      "ĠPr": 7707,
      "Ġtakomto": 7708,
      "ĠprevÃ¡dzku": 7709,
      "ĠpÅĻes": 7710,
      "Ġpoistenia": 7711,
      "UN": 7712,
      "ĠhmotnosÅ¥": 7713,
      "ĠvedÃº": 7714,
      "ĠVla": 7715,
      "Ġvre": 7716,
      "ĠchÃ¡": 7717,
      "covÃ½": 7718,
      "lovÃº": 7719,
      "Ġmer": 7720,
      "ĠnaÅĪ": 7721,
      "85": 7722,
      "ĠSO": 7723,
      "Ġdivadla": 7724,
      "kovanÃ½": 7725,
      "Ġplan": 7726,
      "zke": 7727,
      "Ġdoru": 7728,
      "Ġchemi": 7729,
      "ĠpÃ´sobia": 7730,
      "Ġopra": 7731,
      "Ġcase": 7732,
      "ĠnÃ¡stroje": 7733,
      "Ġsan": 7734,
      "Ġnevedeli": 7735,
      "Ġvdaka": 7736,
      "Ġdepartementu": 7737,
      "Ġpovzbud": 7738,
      "Ġrastliny": 7739,
      "ĠmetÃ³dy": 7740,
      "ĠpouÅ¾itÃŃm": 7741,
      "ĠCol": 7742,
      "Ġrodinou": 7743,
      "nutiu": 7744,
      "ĠRy": 7745,
      "Ġuc": 7746,
      "Ġobal": 7747,
      "ĠsÃŃdli": 7748,
      "Ġpev": 7749,
      "ĠDen": 7750,
      "Ġprv": 7751,
      "zujem": 7752,
      "Ã¡z": 7753,
      "Ca": 7754,
      "Ġtup": 7755,
      "ĠnapÃŃsanÃ©": 7756,
      "Ġkontakty": 7757,
      "Ġautora": 7758,
      "Ġdosta": 7759,
      "78": 7760,
      "ĠpovaÅ¾ujÃº": 7761,
      "ĠParÃŃÅ¾i": 7762,
      "Ġzabil": 7763,
      "ĠpÃ´dy": 7764,
      "ĠZeman": 7765,
      "Ġobla": 7766,
      "sob": 7767,
      "Ã³nom": 7768,
      "rovali": 7769,
      "Ġzhor": 7770,
      "ĠpredÃ¡va": 7771,
      "nor": 7772,
      "ĠÄĮÃŃny": 7773,
      "PrvÃ¡": 7774,
      "renia": 7775,
      "Ġotro": 7776,
      "ĠHra": 7777,
      "Ned": 7778,
      "UT": 7779,
      "ĠsÃŃdlom": 7780,
      "Ġnemoze": 7781,
      "ĠsnaÅ¾ili": 7782,
      "Ġbeing": 7783,
      "SlovenskÃ¡": 7784,
      "Ġsoli": 7785,
      "Ġot": 7786,
      "bera": 7787,
      "gre": 7788,
      "ĠvybavenÃ©": 7789,
      "Ġkonzul": 7790,
      "Ġstole": 7791,
      "ĠTor": 7792,
      "Ġtvojej": 7793,
      "Ġohroz": 7794,
      "ĠskonÄįili": 7795,
      "ĠAmerike": 7796,
      "Ġkonkuren": 7797,
      "Ce": 7798,
      "ĠprÃŃpady": 7799,
      "ĠTA": 7800,
      "reb": 7801,
      "Ġpretekoch": 7802,
      "Ġprvkov": 7803,
      "Ġignor": 7804,
      "ĠsÃ³": 7805,
      "Ġhromad": 7806,
      "ĠslÃºÅ¾ia": 7807,
      "ĠnÃ¡jdu": 7808,
      "Ġday": 7809,
      "Ġpopuli": 7810,
      "NovÃ©": 7811,
      "ĠNech": 7812,
      "ĠpÃ´sobiÅ¥": 7813,
      "Å¡in": 7814,
      "Ġsein": 7815,
      "ĠzÃ¡ujmov": 7816,
      "Ġyears": 7817,
      "ĠObyvateÄ¾stvo": 7818,
      "Ġuzi": 7819,
      "mas": 7820,
      "ĠÃºseku": 7821,
      "ĠfutbalovÃ½": 7822,
      "ĠdÃ´vodom": 7823,
      "Ġklienta": 7824,
      "Ġreg": 7825,
      "ÄįenÃ½ch": 7826,
      "kladÃ¡": 7827,
      "Ġnejaka": 7828,
      "ĠpozÃŃcii": 7829,
      "rela": 7830,
      "ĠspotrebiteÄ¾": 7831,
      "Ġcud": 7832,
      "ĠlieÄįi": 7833,
      "Ġchuti": 7834,
      "ĠHy": 7835,
      "ĠkonÅ¡tatoval": 7836,
      "Ġtvare": 7837,
      "ĠvyrobenÃ½": 7838,
      "Ġpozornosti": 7839,
      "Ġrieky": 7840,
      "hlas": 7841,
      "ĠkapitÃ¡n": 7842,
      "Ġdalsie": 7843,
      "vÃ½mi": 7844,
      "ĠstarÅ¡ÃŃch": 7845,
      "ĠrastlÃŃn": 7846,
      "Ġkombin": 7847,
      "ĠID": 7848,
      "Ġviano": 7849,
      "ĠLin": 7850,
      "Ġvysokou": 7851,
      "Ġopakovane": 7852,
      "ĠvysokÃ½m": 7853,
      "Ġvyprac": 7854,
      "Ġinterpre": 7855,
      "Ġhudob": 7856,
      "Ġdesia": 7857,
      "Ġtva": 7858,
      "ĠsÃºstred": 7859,
      "Ġumiestnenie": 7860,
      "ĠlieÄįbu": 7861,
      "Ġdieta": 7862,
      "ĠnÃ¡mestÃŃ": 7863,
      "ÅłÃ©f": 7864,
      "Ġalkohol": 7865,
      "ĠdobrÃ½ch": 7866,
      "komu": 7867,
      "ĠÅ¾ivotom": 7868,
      "Å¡aÅ¥": 7869,
      "Ġklu": 7870,
      "Ġvidea": 7871,
      "ĠzemÄĽ": 7872,
      "OT": 7873,
      "niÄįka": 7874,
      "For": 7875,
      "Ġreprezentant": 7876,
      "ĠIvana": 7877,
      "Ġriadenia": 7878,
      "vov": 7879,
      "Ġjednotiek": 7880,
      "Ġhovno": 7881,
      "Ġwork": 7882,
      "sc": 7883,
      "old": 7884,
      "ĠdÃ¡l": 7885,
      "ĠPrahy": 7886,
      "Ġmlieka": 7887,
      "Ġtyzden": 7888,
      "ĠMod": 7889,
      "ĠvlÃ¡dne": 7890,
      "Ġ1996": 7891,
      "Ġkolik": 7892,
      "ĠFacebooku": 7893,
      "Ġredak": 7894,
      "By": 7895,
      "Ġterori": 7896,
      "Ġdokumentov": 7897,
      "ĠposteÄ¾": 7898,
      "Ġslnko": 7899,
      "ĠpodporovaÅ¥": 7900,
      "ZdÃ¡": 7901,
      "ĠteÅ¡ÃŃ": 7902,
      "ĠvÃ½rob": 7903,
      "ĠzÃ¡kaznÃŃkom": 7904,
      "Ġprax": 7905,
      "tec": 7906,
      "Tri": 7907,
      "Ġhviezd": 7908,
      "gin": 7909,
      "Ġvysla": 7910,
      "ĠkaÅ¾dÃ½m": 7911,
      "ĠvÃ½luÄįne": 7912,
      "ĠzÃ¡mer": 7913,
      "Ġvzdialenosti": 7914,
      "ĠreÅ¾isÃ©r": 7915,
      "siÅ¥": 7916,
      "ĠÅ¡i": 7917,
      "ĠÃºÄįtov": 7918,
      "Ġkdyz": 7919,
      "ĠmesaÄįne": 7920,
      "bude": 7921,
      "Ġjeb": 7922,
      "teÄ¾nosÅ¥": 7923,
      "ĠVÃ¡Å¡ho": 7924,
      "Ġobdob": 7925,
      "Ġpozrite": 7926,
      "koviÄį": 7927,
      "tuje": 7928,
      "Ġel": 7929,
      "ĠoÄįakÃ¡vaÅ¥": 7930,
      "ĠprÃŃspevky": 7931,
      "Ġdaleko": 7932,
      "ĠmalÃ©ho": 7933,
      "Ġ1992": 7934,
      "car": 7935,
      "ĠpoisÅ¥ovÅĪa": 7936,
      "nostiam": 7937,
      "stvÃ¡ch": 7938,
      "PoÅ¡lite": 7939,
      "Å¾ite": 7940,
      "Ġrobila": 7941,
      "Ġbie": 7942,
      "Ġblok": 7943,
      "cks": 7944,
      "Ġ1993": 7945,
      "ÄĮlovek": 7946,
      "ĠtisÃŃce": 7947,
      "Ġkostola": 7948,
      "Ġvytr": 7949,
      "Ġvery": 7950,
      "ĠvlÃ¡": 7951,
      "nejsi": 7952,
      "caÅ¥": 7953,
      "Jed": 7954,
      "Ġpridal": 7955,
      "jom": 7956,
      "lak": 7957,
      "Ġistom": 7958,
      "Ġbran": 7959,
      "Ġnevedela": 7960,
      "Ġznak": 7961,
      "Ci": 7962,
      "ĠdneÅ¡nÃ©ho": 7963,
      "NovÃ¡": 7964,
      "Ġdovolen": 7965,
      "ĠkrÃŃ": 7966,
      "win": 7967,
      "Ġnode": 7968,
      "Ġhodinky": 7969,
      "Ġauguste": 7970,
      "Ġinfek": 7971,
      "Ġkapely": 7972,
      "ĠAfD": 7973,
      "Ġekonomika": 7974,
      "Ġnevz": 7975,
      "TomÃ¡Å¡": 7976,
      "VÃ½sledky": 7977,
      "Ġnaro": 7978,
      "ĠsÃºvisÃŃ": 7979,
      "Jednoducho": 7980,
      "ĠprÃŃsluÅ¡nÃŃkov": 7981,
      "Ġzabudol": 7982,
      "Ã¡lov": 7983,
      "enosÅ¥": 7984,
      "ĠotÃ¡": 7985,
      "ĠmedzinÃ¡rodnÃ©ho": 7986,
      "Ġpriniesol": 7987,
      "ĠprichÃ¡dzajÃº": 7988,
      "ĠvidÃŃme": 7989,
      "ĠmalÃº": 7990,
      "ration": 7991,
      "ĠobÄįanom": 7992,
      "ĠrozprÃ¡va": 7993,
      "ĠvÃ½sledku": 7994,
      "ĠLy": 7995,
      "Ġinteligent": 7996,
      "ĠSever": 7997,
      "Ġotra": 7998,
      "Ġbudove": 7999,
      "ĠHal": 8000,
      "ĠmasÃŃ": 8001,
      "NachÃ¡dza": 8002,
      "ced": 8003,
      "ĠkÃºpe": 8004,
      "Ġplatit": 8005,
      "lÃ¡n": 8006,
      "Ġnemohla": 8007,
      "ĠprÃŃtomnosÅ¥": 8008,
      "ĠzaloÅ¾enÃ¡": 8009,
      "ĠdodaÅ¥": 8010,
      "ĠnÄĽjak": 8011,
      "Ġstranou": 8012,
      "ĠpÃŃsal": 8013,
      "Ġpriebeh": 8014,
      "ĠnepriateÄ¾": 8015,
      "ĠlÃŃder": 8016,
      "Ġzdvi": 8017,
      "mr": 8018,
      "ĠWorld": 8019,
      "ĠFre": 8020,
      "IV": 8021,
      "Ã©ry": 8022,
      "ĠKub": 8023,
      "orov": 8024,
      "Pov": 8025,
      "Ġnespo": 8026,
      "ĠFilip": 8027,
      "ĠprostÄĽ": 8028,
      "Ġnapoj": 8029,
      "ĠDon": 8030,
      "ĠprÃŃbehy": 8031,
      "Und": 8032,
      "moc": 8033,
      "enosti": 8034,
      "stickÃ½m": 8035,
      "ĠkrÃ¡tky": 8036,
      "Ġdvomi": 8037,
      "ĠSou": 8038,
      "ĠniekoÄ¾kÃ½mi": 8039,
      "Obe": 8040,
      "Ġsprac": 8041,
      "Ġdohoda": 8042,
      "ĠpredchÃ¡dzajÃºcich": 8043,
      "Ġjemu": 8044,
      "Ġmenia": 8045,
      "tovÃº": 8046,
      "Ġ68": 8047,
      "Ġobvin": 8048,
      "gr": 8049,
      "ĠdemonÅ¡t": 8050,
      "ĠÄĮÃŃna": 8051,
      "cus": 8052,
      "ĠrÃ¡di": 8053,
      "Ġradik": 8054,
      "Ġduel": 8055,
      "ruÅ¡": 8056,
      "ĠprÃºd": 8057,
      "nÃ¡ch": 8058,
      "Ġpil": 8059,
      "Ġ1995": 8060,
      "mok": 8061,
      "Ġtriumf": 8062,
      "ĠRakÃºsku": 8063,
      "ĠlÃ¡ske": 8064,
      "46": 8065,
      "Ġuprostred": 8066,
      "ĠosobnÃ½": 8067,
      "³": 8068,
      "treba": 8069,
      "Äįiar": 8070,
      "ĠÅ½iline": 8071,
      "Ġzahr": 8072,
      "Ġrozsah": 8073,
      "Ġthing": 8074,
      "Ġpet": 8075,
      "ĠdÃ´veru": 8076,
      "ĠstrednÃ½ch": 8077,
      "ĠZvolen": 8078,
      "jÃŃm": 8079,
      "dek": 8080,
      "Ġtaku": 8081,
      "Ġbr": 8082,
      "ckeho": 8083,
      "ĠuÅ¾ÃŃ": 8084,
      "ĠpamÃ¤ti": 8085,
      "Ġrezerv": 8086,
      "Ġvyzna": 8087,
      "ĠnazÃ½va": 8088,
      "Ġvysky": 8089,
      "ĠsvÃ¤": 8090,
      "ĠÅ¡Å¥astia": 8091,
      "Ġpote": 8092,
      "Ġzb": 8093,
      "Ġinych": 8094,
      "ĠvÃ½Å¡": 8095,
      "Ju": 8096,
      "Ġskvele": 8097,
      "ĠtÃ½Å¾dni": 8098,
      "ÑĢ": 8099,
      "ĠspoÄįÃŃva": 8100,
      "ĠpoÄįasia": 8101,
      "ĠzÃ¡sah": 8102,
      "ĠlÃ¡ka": 8103,
      "lÃ½m": 8104,
      "Ġsnaha": 8105,
      "Ġopozi": 8106,
      "ĠFacebook": 8107,
      "zÃ¡ciou": 8108,
      "ĠpredchÃ¡dza": 8109,
      "Ġnase": 8110,
      "gon": 8111,
      "Ġpozastav": 8112,
      "ĠzdruÅ¾enie": 8113,
      "ĠnÃŃ": 8114,
      "chat": 8115,
      "Ġreagoval": 8116,
      "ĠnÃ¡stup": 8117,
      "Ġexter": 8118,
      "ente": 8119,
      "ĠnakrÃº": 8120,
      "wo": 8121,
      "podla": 8122,
      "Ġpoc": 8123,
      "ĠÅ¡tÃºdiu": 8124,
      "enskÃ©ho": 8125,
      "Ġcelou": 8126,
      "Sna": 8127,
      "Ġuto": 8128,
      "ĠprÃŃstroj": 8129,
      "ĠobrÃ¡zky": 8130,
      "ĠstupeÅĪ": 8131,
      "ÅĪujem": 8132,
      "ieb": 8133,
      "Sp": 8134,
      "jaÅ¥": 8135,
      "ĠnapÃŃsala": 8136,
      "ĠÃ¼ber": 8137,
      "ĠmÃ¡j": 8138,
      "Äįiny": 8139,
      "nÄĽjÅ¡ÃŃ": 8140,
      "Ġmesiaci": 8141,
      "Ġpravdy": 8142,
      "ĠnastaviÅ¥": 8143,
      "stickÃº": 8144,
      "Ġnezmysel": 8145,
      "Hra": 8146,
      "ĠdlhÃº": 8147,
      "ĠVam": 8148,
      "Ġoddelenia": 8149,
      "NI": 8150,
      "Ġizba": 8151,
      "ĠDPA": 8152,
      "Ġcize": 8153,
      "cion": 8154,
      "ickÃ½m": 8155,
      "ĠÄįlena": 8156,
      "Ġdol": 8157,
      "ÅĪovania": 8158,
      "Ġktorych": 8159,
      "Ġnefunguje": 8160,
      "Ġed": 8161,
      "ĠvloÅ¾": 8162,
      "ĠmestÃ¡": 8163,
      "ĠbÃ¡s": 8164,
      "Ġzvolili": 8165,
      "ĠpoÄįÃºvaÅ¥": 8166,
      "Ġokna": 8167,
      "Ġfra": 8168,
      "ĠpoÄįÃº": 8169,
      "ĠlekÃ¡ri": 8170,
      "ĠSh": 8171,
      "Ġpodnikania": 8172,
      "Ġfotka": 8173,
      "ĠdobrÃ½m": 8174,
      "vÃ¡Å¾": 8175,
      "Ġnevyhnut": 8176,
      "pem": 8177,
      "ÄĽl": 8178,
      "koli": 8179,
      "liv": 8180,
      "Ġhviezdy": 8181,
      "Ġvojenskej": 8182,
      "ĠumoÅ¾": 8183,
      "reÅĪ": 8184,
      "ĠVY": 8185,
      "Ġterm": 8186,
      "stoj": 8187,
      "ĠWest": 8188,
      "kop": 8189,
      "ĠNovÃ©": 8190,
      "ĠskÃºÅ¡ky": 8191,
      "Ġmori": 8192,
      "Ġprijal": 8193,
      "pisu": 8194,
      "Ġzmluve": 8195,
      "ĠÅ¾ivoty": 8196,
      "Ġnesmierne": 8197,
      "ĠnemÃ´Å¾eme": 8198,
      "Ġdass": 8199,
      "ĠNovÃ½": 8200,
      "Ġtentoraz": 8201,
      "ĠvÃ½chodnej": 8202,
      "ĠdrÅ¾": 8203,
      "Ġstran": 8204,
      "ĠdÃ¡vky": 8205,
      "Ġhranici": 8206,
      "ĠkrÃ©m": 8207,
      "Ġprin": 8208,
      "raju": 8209,
      "Ġbanda": 8210,
      "hodno": 8211,
      "ĠdievÄįat": 8212,
      "Ġrozumie": 8213,
      "tina": 8214,
      "ĠpÃ´vodnÃ©ho": 8215,
      "Å¡ok": 8216,
      "ĠcviÄįenia": 8217,
      "Ġukrad": 8218,
      "ĠspolupracovaÅ¥": 8219,
      "use": 8220,
      "Ġbin": 8221,
      "anim": 8222,
      "ĠÄįistÃ©": 8223,
      "Ġostat": 8224,
      "Ġdov": 8225,
      "tum": 8226,
      "Mesto": 8227,
      "tig": 8228,
      "ware": 8229,
      "bru": 8230,
      "Ġminim": 8231,
      "stin": 8232,
      "Autor": 8233,
      "JednÃ½m": 8234,
      "ĠRTVS": 8235,
      "Ġnajhor": 8236,
      "ĠAmeriky": 8237,
      "siel": 8238,
      "ĠveÄįera": 8239,
      "miu": 8240,
      "Ġdemokracia": 8241,
      "ĠdÃº": 8242,
      "Ġvyzval": 8243,
      "jav": 8244,
      "Ġkami": 8245,
      "ĠTento": 8246,
      "ĠhrÃ¡Äįa": 8247,
      "Ġorganizmu": 8248,
      "Ġpoukaz": 8249,
      "ĠodporÃºÄįam": 8250,
      "Ġcu": 8251,
      "ĠgenerÃ¡lneho": 8252,
      "Ġvirtu": 8253,
      "hnutÃ©": 8254,
      "Ġautorov": 8255,
      "ĠUSB": 8256,
      "Ġpotvrdenie": 8257,
      "Ġzachy": 8258,
      "Ġupozornil": 8259,
      "Ġ1994": 8260,
      "Namiesto": 8261,
      "HL": 8262,
      "Ġrepor": 8263,
      "ĠvÃ½stup": 8264,
      "Mu": 8265,
      "UP": 8266,
      "ĠpodpÃŃsal": 8267,
      "Ġspochyb": 8268,
      "ĠnovinÃ¡r": 8269,
      "ĠAna": 8270,
      "mana": 8271,
      "Ġstarej": 8272,
      "AkÃ©": 8273,
      "Ġprodukcie": 8274,
      "Ġosved": 8275,
      "ĠIP": 8276,
      "Ġpochopil": 8277,
      "ĠFo": 8278,
      "Vie": 8279,
      "ĠÃºÅ¾asnÃ©": 8280,
      "Jedno": 8281,
      "ĠspevÃ¡": 8282,
      "bod": 8283,
      "Ġukon": 8284,
      "Du": 8285,
      "ĠMesto": 8286,
      "ĠÃºplnÄĽ": 8287,
      "AA": 8288,
      "ĠAli": 8289,
      "Ġwhy": 8290,
      "76": 8291,
      "ĠoperÃ¡cie": 8292,
      "ĠÅ¡tvrÅ¥finÃ¡le": 8293,
      "Ġzam": 8294,
      "Ġdiskusia": 8295,
      "Ġmilujem": 8296,
      "ĠzÃ¡vaÅ¾": 8297,
      "Ġbunky": 8298,
      "ye": 8299,
      "Ġobvykle": 8300,
      "Ġpevne": 8301,
      "ĠvyÅ¡Å¡ia": 8302,
      "ĠzaoberaÅ¥": 8303,
      "ĠvyÅ¡iel": 8304,
      "Ġrovnakom": 8305,
      "lika": 8306,
      "Ġkoncov": 8307,
      "Ġsaid": 8308,
      "ĠsÃºbory": 8309,
      "Ġoper": 8310,
      "Dob": 8311,
      "ure": 8312,
      "stky": 8313,
      "Ġkupit": 8314,
      "Ġzostali": 8315,
      "istov": 8316,
      "ÅĻit": 8317,
      "hanie": 8318,
      "chÃ½": 8319,
      "enty": 8320,
      "ĠzÃºÄįastnili": 8321,
      "Ġzjednodu": 8322,
      "Ġlavi": 8323,
      "ĠÄĮa": 8324,
      "dik": 8325,
      "rmi": 8326,
      "ĠUN": 8327,
      "ĠakejkoÄ¾vek": 8328,
      "Ġparametre": 8329,
      "ĠotÃ¡zke": 8330,
      "ĠvÃ½let": 8331,
      "Ġdop": 8332,
      "vice": 8333,
      "ĠnÃ¡mor": 8334,
      "graf": 8335,
      "Ä": 8336,
      "ĠAni": 8337,
      "Ġreklamu": 8338,
      "put": 8339,
      "ĠÄįierne": 8340,
      "ĠposlednÃ©ho": 8341,
      "ĠzÃŃskate": 8342,
      "Ġbuniek": 8343,
      "ĠvÃ½stavy": 8344,
      "neniu": 8345,
      "Ġkro": 8346,
      "Pom": 8347,
      "ĠSD": 8348,
      "Ġnechali": 8349,
      "ĠzobraÅ¥": 8350,
      "koho": 8351,
      "ĠOs": 8352,
      "Ġbed": 8353,
      "Ga": 8354,
      "Ġdominan": 8355,
      "Ġschod": 8356,
      "Ġspravit": 8357,
      "ĠtÃŃmov": 8358,
      "ĠbÃ¡nk": 8359,
      "ĠurÄį": 8360,
      "ĠvÃ½roba": 8361,
      "rast": 8362,
      "Ġpohla": 8363,
      "Ġstill": 8364,
      "ĠvykonaÅ¥": 8365,
      "Ġagent": 8366,
      "ander": 8367,
      "tk": 8368,
      "ĠLet": 8369,
      "ĠvedÃºci": 8370,
      "ĠMay": 8371,
      "ĠrozlÃº": 8372,
      "liet": 8373,
      "ĠrobÃŃm": 8374,
      "Predstav": 8375,
      "lÃ¡cia": 8376,
      "Ġpohybuje": 8377,
      "ĠodliÅ¡": 8378,
      "Ġkrasne": 8379,
      "ĠpÃŃsom": 8380,
      "ĠKur": 8381,
      "kne": 8382,
      "Ġvlak": 8383,
      "Ġtvoju": 8384,
      "logi": 8385,
      "potom": 8386,
      "MS": 8387,
      "Ġzlep": 8388,
      "Ġdozadu": 8389,
      "Ġodv": 8390,
      "ĠkandidÃ¡ta": 8391,
      "ĠBritÃ¡nie": 8392,
      "Ġpotreb": 8393,
      "Ġpolicaj": 8394,
      "ÄįÃŃte": 8395,
      "Ġmili": 8396,
      "Ġobet": 8397,
      "ĠmanÅ¾elka": 8398,
      "Naozaj": 8399,
      "ĠStar": 8400,
      "Ġdlhoro": 8401,
      "ĠÅ¡a": 8402,
      "Ġzostal": 8403,
      "lovanÃ©": 8404,
      "Ġkoli": 8405,
      "ĠnemeckÃ©ho": 8406,
      "Ġvedci": 8407,
      "ĠpredstavÃŃ": 8408,
      "Ġvzdela": 8409,
      "Ġihr": 8410,
      "Poz": 8411,
      "Ġreformy": 8412,
      "ĠpodobnÃ½ch": 8413,
      "ĠvÃ½zvy": 8414,
      "tari": 8415,
      "Ġpriestran": 8416,
      "ĠkrÃ¡Ä¾": 8417,
      "ĠsÃºÄįasnÃ©ho": 8418,
      "ĠKli": 8419,
      "Pritom": 8420,
      "ĠzÃ¡kaznÃŃka": 8421,
      "Ġkoko": 8422,
      "ĠÄįia": 8423,
      "Ġdiskusiu": 8424,
      "ĠnÃ¡sledky": 8425,
      "lÃ¡ciu": 8426,
      "rei": 8427,
      "lka": 8428,
      "ĠAC": 8429,
      "very": 8430,
      "Ġoleja": 8431,
      "skami": 8432,
      "ĠdÃ´jde": 8433,
      "ĠznÃ¡": 8434,
      "Celkovo": 8435,
      "ĠnÃ¡ro": 8436,
      "ĠJar": 8437,
      "ĠLos": 8438,
      "Ġminut": 8439,
      "ĠreagovaÅ¥": 8440,
      "ĠPoÄ¾ska": 8441,
      "Ġmno": 8442,
      "ĠbezpeÄįnostnÃ½ch": 8443,
      "Ġhne": 8444,
      "ĠvytvÃ¡raÅ¥": 8445,
      "PouÅ¾ÃŃ": 8446,
      "ovana": 8447,
      "Ġspat": 8448,
      "Ġkeine": 8449,
      "Ġpotrieb": 8450,
      "stel": 8451,
      "ĠvyhlÃ¡senia": 8452,
      "Ġvyt": 8453,
      "ĠodstrÃ¡nenie": 8454,
      "Ġoboha": 8455,
      "ĠdetskÃ©": 8456,
      "Ġmotiv": 8457,
      "Ġvymys": 8458,
      "Ġvyjadrenie": 8459,
      "Ġmlad": 8460,
      "ĠurÄįitÄĽ": 8461,
      "Ġchrb": 8462,
      "ĠtabuÄ¾ky": 8463,
      "ĠbÃº": 8464,
      "Ġstanici": 8465,
      "nejÅ¡ou": 8466,
      "ĠruskÃ½": 8467,
      "Ġchla": 8468,
      "mys": 8469,
      "ickom": 8470,
      "ĠArt": 8471,
      "ĠnehnuteÄ¾nostÃŃ": 8472,
      "Ġvel": 8473,
      "ĠBet": 8474,
      "ĠvÃ¤ÄįÅ¡ia": 8475,
      "Ġvybud": 8476,
      "ĠsprÃŃstup": 8477,
      "timi": 8478,
      "ĠÃºprava": 8479,
      "Ġdoplnky": 8480,
      "ĠrespektÃŃve": 8481,
      "ĠnajvÃ¤ÄįÅ¡ou": 8482,
      "Ġvidia": 8483,
      "ĠjÃºli": 8484,
      "tÃŃvnym": 8485,
      "MomentÃ¡lne": 8486,
      "ĠkÃºp": 8487,
      "ĠpredÃ¡vajÃºceho": 8488,
      "PredplatnÃ©": 8489,
      "Ġliber": 8490,
      "Ġdevia": 8491,
      "Ġbeh": 8492,
      "tnÃ½m": 8493,
      "Ġzauj": 8494,
      "ĠzodpovedÃ¡": 8495,
      "Ġpochod": 8496,
      "ĠTrnava": 8497,
      "ĠsmutnÃ©": 8498,
      "Ġzastre": 8499,
      "cili": 8500,
      "Ġbor": 8501,
      "ĠpouÅ¾ÃŃ": 8502,
      "zera": 8503,
      "ĠhranÃŃc": 8504,
      "Ġhumor": 8505,
      "ĠTU": 8506,
      "Ġkonver": 8507,
      "Ġnazna": 8508,
      "Ġdrese": 8509,
      "Ġdobrom": 8510,
      "Ġmoji": 8511,
      "ĠÅ¡e": 8512,
      "amer": 8513,
      "ĠnenÃ¡vi": 8514,
      "ĠodÃ´vod": 8515,
      "Ġzaregist": 8516,
      "ĠnosiÅ¥": 8517,
      "Ġstromy": 8518,
      "Ġpredmety": 8519,
      "Ġlesk": 8520,
      "ĠÄįud": 8521,
      "Ġlitrov": 8522,
      "ĠÄİ": 8523,
      "ĠsvÄĽ": 8524,
      "Ġmich": 8525,
      "ĠprÃŃjmy": 8526,
      "ika": 8527,
      "Petr": 8528,
      "cik": 8529,
      "Ġpodporou": 8530,
      "ĠzvlÃ¡Å¡tne": 8531,
      "Ġklubov": 8532,
      "ĠDnes": 8533,
      "ĠmiestnosÅ¥": 8534,
      "ProblÃ©m": 8535,
      "Ġbig": 8536,
      "Ġkludne": 8537,
      "hral": 8538,
      "yer": 8539,
      "UD": 8540,
      "Ġnebudu": 8541,
      "ĠostatnÃ½m": 8542,
      "Ġhlbo": 8543,
      "ĠKrÃ¡": 8544,
      "ĠpodÃ¡": 8545,
      "ĠodbornÃ©": 8546,
      "Ġjuhu": 8547,
      "Ġskus": 8548,
      "dan": 8549,
      "Ġautoma": 8550,
      "Ġ8787": 8551,
      "ĠrieÅ¡enÃŃm": 8552,
      "ĠvÃ¤ÄįÅ¡iny": 8553,
      "Ġzlata": 8554,
      "Ġdetaily": 8555,
      "Ġkontrolou": 8556,
      "Ġposte": 8557,
      "ĠÃºro": 8558,
      "Ġodvola": 8559,
      "Ġnovou": 8560,
      "ĠnajvyÅ¡Å¡ie": 8561,
      "ĠopozÃŃcie": 8562,
      "ÄĮe": 8563,
      "Ġvedomie": 8564,
      "Ġposlanca": 8565,
      "Ġ1500": 8566,
      "ĠTrnave": 8567,
      "Ġihrisku": 8568,
      "ĠfutbalovÃ©ho": 8569,
      "DobrÃ½": 8570,
      "ĠzabiÅ¥": 8571,
      "MÃ´Å¾em": 8572,
      "lor": 8573,
      "Ġplod": 8574,
      "Ġstatu": 8575,
      "ĠrozhodovaÅ¥": 8576,
      "ĠnaÅ¡imi": 8577,
      "ĠsvetovÃ©ho": 8578,
      "Ġdata": 8579,
      "2012": 8580,
      "Ġvhod": 8581,
      "Ġkonflikt": 8582,
      "They": 8583,
      "ĠpoÅ¡ko": 8584,
      "Ġviedli": 8585,
      "ĠKÄį": 8586,
      "Ġhlav": 8587,
      "ĠfederÃ¡cie": 8588,
      "ziÃŃ": 8589,
      "ovatelia": 8590,
      "ĠcelkovÃ©ho": 8591,
      "king": 8592,
      "ĠovlÃ¡danie": 8593,
      "ĠkariÃ©ru": 8594,
      "Ġ130": 8595,
      "Ġsymboli": 8596,
      "ĠKoÅ¡ÃŃc": 8597,
      "gue": 8598,
      "ĠodbornÃ½ch": 8599,
      "loÅ¾enÃ©": 8600,
      "Ġtim": 8601,
      "ĠvideÃ¡": 8602,
      "ĠverÃŃ": 8603,
      "Ġakademi": 8604,
      "Ġpale": 8605,
      "Ġspotreb": 8606,
      "Ġnijako": 8607,
      "ĠodbornÃŃci": 8608,
      "ĠoprÃ¡v": 8609,
      "ST": 8610,
      "º": 8611,
      "gel": 8612,
      "ĠBol": 8613,
      "gram": 8614,
      "ĠjednoduchÃ¡": 8615,
      "ĠLadislav": 8616,
      "Ġhit": 8617,
      "ĠÃºÄįinnosÅ¥": 8618,
      "ĠÃºstred": 8619,
      "Ġargumenty": 8620,
      "ĠnÃ¡rodov": 8621,
      "Ġcasto": 8622,
      "Ġzma": 8623,
      "SR": 8624,
      "ĠochorenÃŃ": 8625,
      "stli": 8626,
      "ĠlÃ©": 8627,
      "ĠchystÃ¡": 8628,
      "nickÃ¡": 8629,
      "ĠkÄ¾ÃºÄį": 8630,
      "ĠodovzdÃ¡": 8631,
      "mozno": 8632,
      "Ġmotora": 8633,
      "Ġodboru": 8634,
      "Ġneexist": 8635,
      "ĠvoÄ¾ba": 8636,
      "JÃ¡n": 8637,
      "ĠRE": 8638,
      "ĠkvalitnÃ½ch": 8639,
      "ĠpÃ´sobenia": 8640,
      "ĠJiÅĻÃŃ": 8641,
      "Proti": 8642,
      "Ġultra": 8643,
      "ality": 8644,
      "Ġrovnakej": 8645,
      "ĠveliteÄ¾": 8646,
      "ĠvyhnÃºÅ¥": 8647,
      "ĠRod": 8648,
      "ĠvÃŃno": 8649,
      "ĠuvedomiÅ¥": 8650,
      "enskÃ¡": 8651,
      "ĠodpovedaÅ¥": 8652,
      "ĠnajbliÅ¾Å¡ie": 8653,
      "Ġkrabi": 8654,
      "ĠTru": 8655,
      "Ġpodnikov": 8656,
      "UB": 8657,
      "ĠnebezpeÄįnÃ©": 8658,
      "ston": 8659,
      "tym": 8660,
      "iec": 8661,
      "Ġchyb": 8662,
      "ĠdobrÃ©ho": 8663,
      "Ġtran": 8664,
      "Ġzmes": 8665,
      "sona": 8666,
      "ĠpokraÄįoval": 8667,
      "Ġmiestnej": 8668,
      "Ġnekon": 8669,
      "Ġ1991": 8670,
      "Ðµ": 8671,
      "Ġnaf": 8672,
      "Ġcukru": 8673,
      "ĠZÅł": 8674,
      "Ġmanipu": 8675,
      "Ġvid": 8676,
      "Ġvsade": 8677,
      "Ġreferendum": 8678,
      "ovho": 8679,
      "Ġdoklad": 8680,
      "vol": 8681,
      "ĠudalostÃŃ": 8682,
      "nÃŃkovi": 8683,
      "Ġsestry": 8684,
      "Ġpravej": 8685,
      "Ġtax": 8686,
      "ĠprÃŃstupu": 8687,
      "ĠspÃ´sobil": 8688,
      "ĠHZDS": 8689,
      "ĠotÃ¡zkou": 8690,
      "Ġcast": 8691,
      "47": 8692,
      "inÃ¡r": 8693,
      "DruhÃ½": 8694,
      "Äĩ": 8695,
      "ĠSpoloÄįnosÅ¥": 8696,
      "Ġpodstat": 8697,
      "ĠvyÅ¡Å¡iu": 8698,
      "ĠzÃ¡stupcovia": 8699,
      "ĠvnÃŃma": 8700,
      "Ġdement": 8701,
      "ĠpodÃ¡va": 8702,
      "Ġcasu": 8703,
      "ĠpodnikateÄ¾ov": 8704,
      "nÃŃcke": 8705,
      "Ġfanta": 8706,
      "Ġfix": 8707,
      "ĠvidÃŃte": 8708,
      "Ġreprezenta": 8709,
      "Ġverejnom": 8710,
      "ĠvyberaÅ¥": 8711,
      "omÃ¡": 8712,
      "ĠplnÃ¡": 8713,
      "tkom": 8714,
      "ĠsedieÅ¥": 8715,
      "Ġcome": 8716,
      "Ġvyro": 8717,
      "ĠKop": 8718,
      "Ġped": 8719,
      "ĠÄ¾udskej": 8720,
      "Ð½": 8721,
      "ĠprÃ¡vnych": 8722,
      "Ġvynika": 8723,
      "Ġpostavili": 8724,
      "ĠÄ¾ade": 8725,
      "sled": 8726,
      "89": 8727,
      "Ġpredmetov": 8728,
      "ĠnesÃº": 8729,
      "Ġskupin": 8730,
      "TakÃ©to": 8731,
      "Ġsymbol": 8732,
      "Ġtretieho": 8733,
      "ĠSme": 8734,
      "Ġtech": 8735,
      "ĠdneÅ¡nom": 8736,
      "ãģ": 8737,
      "ĠStan": 8738,
      "Ġpotravin": 8739,
      "Ġschop": 8740,
      "Ġodvtedy": 8741,
      "Ġposlu": 8742,
      "ĠnavÅ¾dy": 8743,
      "Ġokno": 8744,
      "Vla": 8745,
      "Ġsrdci": 8746,
      "Ġafter": 8747,
      "Ġbub": 8748,
      "ĠHav": 8749,
      "Ġbordel": 8750,
      "Ġprsia": 8751,
      "Ġskal": 8752,
      "ĠÅ¾iv": 8753,
      "ĠdopÄºÅĪa": 8754,
      "Nechcem": 8755,
      "ĠuÅ¾ÃŃvateÄ¾": 8756,
      "Ad": 8757,
      "Ġgoing": 8758,
      "ĠCan": 8759,
      "stÃº": 8760,
      "ith": 8761,
      "Ġkomer": 8762,
      "radÃŃ": 8763,
      "ĠuÅ¾ÃŃvaÅ¥": 8764,
      "ĠpoÄįtom": 8765,
      "Niekto": 8766,
      "Ġrelax": 8767,
      "ejÅ¡ie": 8768,
      "Ġstopy": 8769,
      "stiam": 8770,
      "Ġhmotnosti": 8771,
      "ĠdÃ´kazy": 8772,
      "sala": 8773,
      "hovor": 8774,
      "Ġtvori": 8775,
      "ĠmÃ©diÃ¡ch": 8776,
      "Ġslne": 8777,
      "Ġizo": 8778,
      "nejÅ¡ej": 8779,
      "UL": 8780,
      "ĠMerkel": 8781,
      "Kam": 8782,
      "ora": 8783,
      "Ġoka": 8784,
      "Äļ": 8785,
      "sive": 8786,
      "Ġpredsedom": 8787,
      "Ġstrav": 8788,
      "atÃ¡": 8789,
      "Ġdopln": 8790,
      "OB": 8791,
      "Ġcharakteru": 8792,
      "ĠeurÃ³pske": 8793,
      "ĠvyplÃ¡": 8794,
      "ĠMaÄıarska": 8795,
      "Ġizbu": 8796,
      "ĠnatoÄ¾ko": 8797,
      "Predseda": 8798,
      "Ġnevin": 8799,
      "Ġ77": 8800,
      "ĠIs": 8801,
      "pak": 8802,
      "Ġprep": 8803,
      "ĠpÃ¤": 8804,
      "NY": 8805,
      "ĠPreÅ¡ove": 8806,
      "hem": 8807,
      "Ġpia": 8808,
      "ĠpolitickÃ©ho": 8809,
      "ĠsamotnÃ©": 8810,
      "Ġbiela": 8811,
      "ĠukazujÃº": 8812,
      "ĠparlamentnÃ½ch": 8813,
      "Ġvnu": 8814,
      "Ġdres": 8815,
      "ĠPoli": 8816,
      "dle": 8817,
      "Ġotvorene": 8818,
      "zar": 8819,
      "DvadsaÅ¥": 8820,
      "Ġozdob": 8821,
      "Ġ110": 8822,
      "Ġnepro": 8823,
      "ctva": 8824,
      "teg": 8825,
      "liny": 8826,
      "Ġodstra": 8827,
      "ĠpolitickÃ¡": 8828,
      "ĠMP": 8829,
      "ĠzÃ¡znam": 8830,
      "Ġminu": 8831,
      "Ġsho": 8832,
      "ĠpruÅ¾": 8833,
      "mene": 8834,
      "Ġsilou": 8835,
      "Ġrozdiely": 8836,
      "ĠKÃ¡": 8837,
      "ĠmenÅ¡ÃŃ": 8838,
      "ĠodtiaÄ¾": 8839,
      "ĠkultÃºrne": 8840,
      "lenÃ©ho": 8841,
      "jme": 8842,
      "ĠsignÃ¡l": 8843,
      "ÅĪÃ¡k": 8844,
      "Ġfran": 8845,
      "ĠprÃŃtomnosti": 8846,
      "Ġvlh": 8847,
      "KoÄ¾ko": 8848,
      "Å¾it": 8849,
      "Ġspis": 8850,
      "zis": 8851,
      "ĠbeÅ¾nÃ½ch": 8852,
      "Ġkul": 8853,
      "ĠKrista": 8854,
      "ties": 8855,
      "Ġzalo": 8856,
      "ĠÄįlenmi": 8857,
      "ĠzavÃ¡dza": 8858,
      "Ġkot": 8859,
      "teÄ¾nÃº": 8860,
      "Ġjj": 8861,
      "Ġprospe": 8862,
      "Ġodob": 8863,
      "ĠpolitickÃº": 8864,
      "ĠSpojenÃ©": 8865,
      "ĠmÃ¤sa": 8866,
      "ĠJozefa": 8867,
      "Ġvyhotov": 8868,
      "Ġhrob": 8869,
      "Ġobmedzenia": 8870,
      "tko": 8871,
      "Ġinterak": 8872,
      "ĠzruÅ¡enie": 8873,
      "Ġkauze": 8874,
      "Ġdet": 8875,
      "Ġpacienta": 8876,
      "ĠzÃ¡chran": 8877,
      "ĠkonÃŃ": 8878,
      "Ġpoznam": 8879,
      "ĠBob": 8880,
      "Sch": 8881,
      "ĠuviesÅ¥": 8882,
      "Ġdopadne": 8883,
      "fin": 8884,
      "ĠobjednÃ¡vku": 8885,
      "ĠneprÃŃjem": 8886,
      "tet": 8887,
      "zdy": 8888,
      "Ġnedovo": 8889,
      "ĠprÃŃprava": 8890,
      "ĠmodernÃ©": 8891,
      "Ġlogi": 8892,
      "Ġrisk": 8893,
      "Ġbrit": 8894,
      "iss": 8895,
      "ĠspoloÄįnÃ©ho": 8896,
      "Ġzve": 8897,
      "Ġverzii": 8898,
      "ĠpodporujÃº": 8899,
      "Ġkontro": 8900,
      "hlad": 8901,
      "ĠcestujÃºcich": 8902,
      "NieÄįo": 8903,
      "Ġpojde": 8904,
      "Ġcelu": 8905,
      "Ġspomedzi": 8906,
      "ĠSMK": 8907,
      "Ġbudova": 8908,
      "ĠAlex": 8909,
      "ĠbÃ¡ze": 8910,
      "Ġstvor": 8911,
      "ĠRoberta": 8912,
      "Ġbronz": 8913,
      "ĠkariÃ©ry": 8914,
      "ĠlÃŃstky": 8915,
      "ĠobzvlÃ¡Å¡Å¥": 8916,
      "Fico": 8917,
      "razil": 8918,
      "Ġodstup": 8919,
      "Ġodvahu": 8920,
      "Ġuprednost": 8921,
      "Ġgar": 8922,
      "Ġnapisal": 8923,
      "Ġexist": 8924,
      "ĠVaÅ¡ich": 8925,
      "ĠznÃ¡sil": 8926,
      "ac": 8927,
      "ĠoÄįiach": 8928,
      "Ġmojim": 8929,
      "Ġtvrdil": 8930,
      "ĠsnaÅ¾ÃŃm": 8931,
      "ĠzachrÃ¡niÅ¥": 8932,
      "isto": 8933,
      "Ġego": 8934,
      "Ġnormal": 8935,
      "ĠTaliansku": 8936,
      "ĠÅ¡Å¥astnÃ½": 8937,
      "ĠzastupiteÄ¾stva": 8938,
      "ĠzÃ¡stupcov": 8939,
      "2008": 8940,
      "Ġposud": 8941,
      "ING": 8942,
      "Ġlokalite": 8943,
      "ĠnÃŃzke": 8944,
      "cts": 8945,
      "ĠvÃ¤zby": 8946,
      "vere": 8947,
      "ĠnahradiÅ¥": 8948,
      "Ġvytla": 8949,
      "sÃ¡": 8950,
      "jÃºc": 8951,
      "Ġvybe": 8952,
      "Ġnovely": 8953,
      "ĠpomÃ´Å¾u": 8954,
      "ĠupozorÅĪuje": 8955,
      "67": 8956,
      "ĠneplatÃŃ": 8957,
      "Ġ160": 8958,
      "ĠdiaÄ¾": 8959,
      "liÅ¡": 8960,
      "Ġrozhoduje": 8961,
      "poj": 8962,
      "ĠfÃ¡ze": 8963,
      "Ġvse": 8964,
      "Ġradosti": 8965,
      "ĠrodÃŃn": 8966,
      "Ġplno": 8967,
      "Ġcor": 8968,
      "jeb": 8969,
      "ĠMaria": 8970,
      "tÃŃn": 8971,
      "Ġdos": 8972,
      "ĠsluÅ¾ob": 8973,
      "ĠtÃŃmy": 8974,
      "ĠsÃºÄįasnÃ½": 8975,
      "ĠSil": 8976,
      "ĠscÃ©ny": 8977,
      "rika": 8978,
      "Ġvytvor": 8979,
      "Ġliga": 8980,
      "ford": 8981,
      "Ġnor": 8982,
      "ĠMatej": 8983,
      "ĠpouÅ¾ÃŃvania": 8984,
      "Ġmaji": 8985,
      "ĠEurÃ³pa": 8986,
      "Ġskoda": 8987,
      "zte": 8988,
      "ĠprÃŃjmu": 8989,
      "sho": 8990,
      "ĠprÃŃjemne": 8991,
      "ĠhodnÃ´t": 8992,
      "ĠpÃ´sob": 8993,
      "Ġnecha": 8994,
      "ĠurÄįiÅ¥": 8995,
      "Ġdrah": 8996,
      "Ġnak": 8997,
      "ĠhÄ¾adajÃº": 8998,
      "bral": 8999,
      "Ġvzal": 9000,
      "ĠdohodnÃºÅ¥": 9001,
      "Takze": 9002,
      "enku": 9003,
      "Ġchirurg": 9004,
      "zovanÃ½ch": 9005,
      "rÃ¡cie": 9006,
      "Ġostrove": 9007,
      "ĠkontaktovaÅ¥": 9008,
      "Ġprekro": 9009,
      "Ġpojem": 9010,
      "Ġslovensky": 9011,
      "ĠmedziroÄįne": 9012,
      "Ä¾ovania": 9013,
      "ĠtopÃ¡nky": 9014,
      "Ġemi": 9015,
      "rilo": 9016,
      "Ġzom": 9017,
      "Ġevanjeli": 9018,
      "nenej": 9019,
      "Ã©ru": 9020,
      "Ġuliciach": 9021,
      "Ġseda": 9022,
      "ĠsnÃŃ": 9023,
      "Ġhradu": 9024,
      "Ġarab": 9025,
      "lilo": 9026,
      "ĠzvÃ¤ÄįÅ¡a": 9027,
      "ĠzamestnÃ¡vateÄ¾": 9028,
      "ĠobÄ¾ÃºbenÃ©": 9029,
      "Ġbiely": 9030,
      "rÃ¡lne": 9031,
      "ĠÅ¡tvrÅ¥": 9032,
      "ĠSÃ½rii": 9033,
      "Ġnedal": 9034,
      "nÃŃckej": 9035,
      "ĠkrÃ¡sna": 9036,
      "Åłkoda": 9037,
      "Ġtexty": 9038,
      "ĠvyvÃ¡Å¾": 9039,
      "Å¡uje": 9040,
      "ĠpÃŃs": 9041,
      "kanie": 9042,
      "Moje": 9043,
      "ĠorgÃ¡nu": 9044,
      "mem": 9045,
      "ĠudalosÅ¥": 9046,
      "ĠEr": 9047,
      "Ġponor": 9048,
      "Å¡al": 9049,
      "ĠpÃ½ta": 9050,
      "icky": 9051,
      "Å¡ajÃº": 9052,
      "bim": 9053,
      "Ġpostavil": 9054,
      "Ġkoment": 9055,
      "Ġobjektov": 9056,
      "Ã¡rne": 9057,
      "Ġvrcho": 9058,
      "ĠvyrobenÃ¡": 9059,
      "ĠkaÅ¾doroÄįne": 9060,
      "ĠJi": 9061,
      "Ġkvety": 9062,
      "janie": 9063,
      "ĠSha": 9064,
      "ĠvoÄ¾ne": 9065,
      "Ġton": 9066,
      "ĠkomunikÃ¡ciu": 9067,
      "iaÄ¾": 9068,
      "Ġpreci": 9069,
      "Ġpredstavu": 9070,
      "ĠstranÃ¡ch": 9071,
      "vnych": 9072,
      "Ġcuk": 9073,
      "pera": 9074,
      "ĠrÃ½chly": 9075,
      "Ġtot": 9076,
      "ĠÄįlÃ¡nkov": 9077,
      "sson": 9078,
      "ĠpresvedÄįiÅ¥": 9079,
      "Ġdemon": 9080,
      "ĠhrajÃº": 9081,
      "Ġpoliticky": 9082,
      "nÃŃÄįky": 9083,
      "Äįeka": 9084,
      "ĠÄįastiach": 9085,
      "ĠaplikÃ¡ciu": 9086,
      "TS": 9087,
      "ĠKto": 9088,
      "vajÃºce": 9089,
      "Ġlietadiel": 9090,
      "Å¡enÃ©": 9091,
      "Ġmrt": 9092,
      "ĠvyÅ¡etrovanie": 9093,
      "Ġmyslis": 9094,
      "zanie": 9095,
      "ĠtradiÄįne": 9096,
      "pustil": 9097,
      "mÃ½": 9098,
      "ĠÅ¾iadnom": 9099,
      "rÃ¼": 9100,
      "Ġotvoril": 9101,
      "vami": 9102,
      "Jana": 9103,
      "ĠvlÃ¡dou": 9104,
      "Ġozbroj": 9105,
      "ĠvyrÃ¡": 9106,
      "hoda": 9107,
      "ĠznaÄįku": 9108,
      "Vz": 9109,
      "ĠmontÃ¡Å¾": 9110,
      "ĠruÅ¾": 9111,
      "Ġhlavi": 9112,
      "Ġtitulu": 9113,
      "ĠeurozÃ³ny": 9114,
      "ĠpovinnostÃŃ": 9115,
      "Ġnejakom": 9116,
      "ĠÄįitateÄ¾": 9117,
      "ĠSvet": 9118,
      "Ġjednoduch": 9119,
      "Ġown": 9120,
      "Ġdostav": 9121,
      "ÅĪaj": 9122,
      "Ġcin": 9123,
      "Ġlehote": 9124,
      "ener": 9125,
      "ĠDJ": 9126,
      "BS": 9127,
      "ĠuvedenÃ½": 9128,
      "ĠslovenskÃŃ": 9129,
      "Ġtmav": 9130,
      "Ġelektronickej": 9131,
      "ĠspaÅ¥": 9132,
      "ĠVami": 9133,
      "Ġpredme": 9134,
      "ĠpraÅ¾": 9135,
      "2011": 9136,
      "obo": 9137,
      "ĠkoneÄįnom": 9138,
      "voch": 9139,
      "Ġdoh": 9140,
      "Ġpotvrdila": 9141,
      "Ġkvalitnej": 9142,
      "ĠKisku": 9143,
      "ĠprÃŃkaz": 9144,
      "Ġkomunity": 9145,
      "ĠtÃŃmom": 9146,
      "Ġodpovedal": 9147,
      "Ġhodnotenia": 9148,
      "tkami": 9149,
      "und": 9150,
      "bl": 9151,
      "ĠseriÃ¡lu": 9152,
      "stnÃ¡": 9153,
      "Ġvis": 9154,
      "ĠLip": 9155,
      "Ġhubu": 9156,
      "sime": 9157,
      "Ġobjekt": 9158,
      "Ġplynov": 9159,
      "ĠDE": 9160,
      "Ġposiela": 9161,
      "ĠWin": 9162,
      "Ġnedostane": 9163,
      "Ġnemuseli": 9164,
      "ĠvÃ½robku": 9165,
      "ĠobrÃ¡zok": 9166,
      "ĠmÃ¤k": 9167,
      "lovanie": 9168,
      "Ġobchody": 9169,
      "ĠintenzÃŃvne": 9170,
[...]
